{
  "!": 17,
  "!!": 10095,
  "!!!": 29646,
  "!!!!": 36689,
  "!\"": 6653,
  "!\")": 24420,
  "!\",": 38500,
  "!'": 34379,
  "!')": 32022,
  "!)": 10205,
  "!),": 33887,
  "!).": 22112,
  "!**": 33656,
  "!,": 45495,
  "!=": 42732,
  "![": 21653,
  "!âĢĻ": 39588,
  "!âĢĿ": 10761,
  "\"": 18,
  "\"\"": 1093,
  "\"\"\"": 3327,
  "\"\"\")": 45714,
  "\"\"\",": 33923,
  "\"\")": 27359,
  "\"%": 48158,
  "\"'": 17242,
  "\"',": 46589,
  "\")": 1715,
  "\"))": 11121,
  "\")),": 36198,
  "\"),": 6872,
  "\").": 10425,
  "\"):": 12593,
  "\");": 21646,
  "\")[": 36718,
  "\")]": 41598,
  "\"+": 30541,
  "\",": 1002,
  "\",\"": 14460,
  "\".": 2227,
  "\"...": 44938,
  "\"/": 47999,
  "\"/>": 48159,
  "\":": 1799,
  "\":\"": 25535,
  "\";": 16005,
  "\">": 15889,
  "\"?": 17455,
  "\"[": 39661,
  "\"\\": 21579,
  "\"]": 3222,
  "\"])": 11463,
  "\"]))": 43194,
  "\"]),": 40414,
  "\"],": 9224,
  "\"].": 16777,
  "\"]/": 48037,
  "\"]:": 23024,
  "\"]=": 47251,
  "\"][": 24017,
  "\"][\"": 16123,
  "\"]]": 44774,
  "\"{": 14737,
  "\"}": 23597,
  "\"})": 41824,
  "\"},": 24885,
  "\"âĢĶ": 36043,
  "#": 19,
  "#!": 15352,
  "#!/": 16441,
  "##": 712,
  "###": 3757,
  "####": 1229,
  "########": 2128,
  "############": 24967,
  "################": 3846,
  "################################": 7593,
  "################################################": 37541,
  "################################################################": 17794,
  "############################################################################": 39910,
  "################################################################################": 45855,
  "#----------------------------------------------------------------": 45462,
  "$": 20,
  "$$": 9212,
  "$',": 28563,
  "$,": 26265,
  "$.": 28422,
  "$\\": 43278,
  "%": 21,
  "%%": 22403,
  "%%%%": 44309,
  "%(": 21644,
  "%)": 8402,
  "%),": 16556,
  "%).": 18554,
  "%,": 9812,
  "%-": 40185,
  "%.": 8006,
  "%;": 38370,
  "%|": 38601,
  "%||": 34817,
  "&": 22,
  "'": 23,
  "'\"": 20834,
  "'\")": 43579,
  "'\",": 44140,
  "'%": 42754,
  "''": 3816,
  "'''": 11193,
  "'(": 41299,
  "')": 1465,
  "')(": 41426,
  "'))": 8891,
  "')))": 41276,
  "')),": 20741,
  "'),": 5111,
  "').": 11724,
  "'):": 9904,
  "');": 48375,
  "')[": 25910,
  "')]": 35279,
  "'+": 26069,
  "',": 923,
  "','": 8178,
  "'-": 35893,
  "'.": 4289,
  "'/": 30981,
  "':": 1539,
  "':'": 19667,
  "';": 36651,
  "'?": 46859,
  "'\\": 19153,
  "']": 1468,
  "'])": 6812,
  "']))": 24700,
  "']),": 28951,
  "']).": 47873,
  "']):": 41198,
  "'],": 5570,
  "'].": 10002,
  "']:": 14868,
  "']=": 48633,
  "'][": 13237,
  "']['": 10211,
  "']]": 30337,
  "']}": 43144,
  "'^": 27516,
  "'d": 6737,
  "'ll": 3060,
  "'m": 5248,
  "'re": 2316,
  "'s": 506,
  "'t": 982,
  "'ve": 3543,
  "'{": 19225,
  "'}": 16124,
  "'})": 30856,
  "'}),": 41541,
  "'},": 20039,
  "(": 24,
  "(\"": 1470,
  "(\"\"\"": 27399,
  "(\"\")": 40141,
  "(\"#": 47768,
  "(\"%": 23901,
  "(\",": 42861,
  "(\"-": 25587,
  "(\"--": 24403,
  "(\".": 41048,
  "(\"./": 48278,
  "(\"/": 19372,
  "(\"<": 38400,
  "(\"[": 38139,
  "(\"\\": 16112,
  "(\"{": 45257,
  "(\"{}": 43331,
  "(%": 37511,
  "('": 1305,
  "('%": 25797,
  "(',": 34217,
  "('-": 20094,
  "('--": 14038,
  "('.": 26497,
  "('.')": 40678,
  "('./": 39432,
  "('.//": 41683,
  "('/": 13457,
  "('/')": 40796,
  "('<": 31824,
  "('[": 42423,
  "('\\": 17402,
  "('_": 30576,
  "('{}": 46389,
  "((": 5134,
  "(('": 38795,
  "(((": 48519,
  "((-": 22964,
  "()": 1000,
  "())": 5107,
  "()))": 19448,
  "()),": 21375,
  "()).": 37481,
  "()):": 26913,
  "(),": 5586,
  "().": 5114,
  "().__": 18235,
  "():": 3734,
  "();": 35040,
  "()[": 19385,
  "()]": 24648,
  "()])": 42025,
  "()`": 13084,
  "()}": 37078,
  "(*": 12905,
  "(**": 20084,
  "(-": 10242,
  "([": 4151,
  "([\"": 27480,
  "(['": 17875,
  "([(": 46053,
  "([-": 45825,
  "([[": 23193,
  "([])": 38667,
  "(\\": 19407,
  "(_": 10558,
  "(__": 13378,
  "({": 10713,
  "({\"": 28678,
  "({'": 20763,
  "({}": 46845,
  ")": 25,
  ")!": 31050,
  ")\"": 19432,
  ")\")": 29955,
  ")\",": 23849,
  ")\".": 29925,
  ")$": 38224,
  ")'": 28392,
  ")')": 26902,
  ")',": 24870,
  ")(": 14502,
  "))": 1292,
  ")))": 7754,
  "))))": 38799,
  ")),": 9614,
  ")).": 15723,
  ")):": 10290,
  "))[": 46165,
  "))]": 35854,
  ")*": 14428,
  ")*(": 45030,
  ")**": 14353,
  ")+": 18434,
  "),": 643,
  "),(": 43907,
  ")-": 14400,
  ").": 595,
  ").\"": 36244,
  ").__": 15810,
  ").|": 43186,
  ").âĢĿ": 32326,
  ")/": 13096,
  ")/(": 39851,
  "):": 727,
  "):**": 45112,
  ");": 4258,
  ")<": 47902,
  ")=": 36637,
  ")==": 47004,
  ")>": 46153,
  ")?": 14487,
  ")[": 12993,
  ")\\": 24492,
  ")]": 8307,
  ")](": 25840,
  ")])": 21311,
  ")],": 24329,
  ")].": 42531,
  ")^": 33295,
  ")`": 37387,
  ")|": 9756,
  ")||": 10784,
  ")}": 20685,
  ")âĢĶ": 25628,
  ")âĢĿ": 42931,
  "*": 26,
  "*(": 20679,
  "*)": 45106,
  "**": 828,
  "***": 24299,
  "****": 5398,
  "********": 9366,
  "****************": 16540,
  "********************************": 31791,
  "**,": 26765,
  "**.": 19297,
  "**:": 4253,
  "*,": 16505,
  "*-": 10271,
  "*.": 13773,
  "*:": 13714,
  "+": 27,
  "+\"": 23842,
  "+'": 16515,
  "+',": 41078,
  "+'.": 44591,
  "+(": 46078,
  "+)": 34764,
  "++": 11444,
  "++++": 31007,
  "++++++++": 48986,
  "+,": 37990,
  "+-": 34592,
  "+-+-": 47562,
  "+.": 43398,
  "+=": 32657,
  "+\\": 42639,
  ",": 28,
  ",\"": 1627,
  ",'": 7904,
  ",''": 38696,
  ",(": 33657,
  ",)": 21801,
  ",))": 34176,
  ",),": 34162,
  ",*": 44510,
  ",,": 12002,
  ",,,,": 20538,
  ",,,,,,,,": 31390,
  ",,,,,,,,,,,,,,,,": 47224,
  ",-": 10790,
  ",.": 28343,
  ",...": 40171,
  ",:]": 43181,
  ",[": 46312,
  ",\\": 29323,
  ",_": 40476,
  ",âĢĻ": 12519,
  ",âĢĿ": 1447,
  "-": 29,
  "-$": 47327,
  "-%": 17661,
  "-'": 42086,
  "-(": 41825,
  "-)": 31799,
  "-,": 21932,
  "--": 423,
  "---": 5583,
  "----": 586,
  "-----": 17318,
  "------": 21771,
  "-------": 14337,
  "--------": 916,
  "---------": 26238,
  "----------": 10774,
  "-----------": 32660,
  "------------": 8311,
  "-------------": 36065,
  "--------------": 36488,
  "---------------": 35434,
  "----------------": 1688,
  "------------------": 33517,
  "--------------------": 42838,
  "---------------------": 39657,
  "----------------------": 48340,
  "-----------------------": 46850,
  "------------------------": 21393,
  "-------------------------": 44647,
  "--------------------------": 47315,
  "---------------------------": 37546,
  "----------------------------": 14033,
  "-----------------------------": 35123,
  "------------------------------": 30624,
  "-------------------------------": 25223,
  "--------------------------------": 4085,
  "----------------------------------": 27848,
  "-----------------------------------": 41357,
  "------------------------------------": 36672,
  "-------------------------------------": 41550,
  "---------------------------------------": 44075,
  "----------------------------------------": 48609,
  "-----------------------------------------": 42098,
  "------------------------------------------": 45402,
  "--------------------------------------------": 20868,
  "---------------------------------------------": 48344,
  "----------------------------------------------": 46507,
  "-----------------------------------------------": 35146,
  "------------------------------------------------": 18470,
  "----------------------------------------------------------------": 15069,
  "-.": 43526,
  "->": 22690,
  "-\\": 46240,
  ".": 30,
  ".\"": 1270,
  ".\"\"\"": 7996,
  ".\")": 9896,
  ".\",": 14069,
  ".\".": 31147,
  ".%": 40429,
  ".'": 6662,
  ".'\"": 40269,
  ".''": 37486,
  ".')": 13389,
  ".',": 24650,
  ".(": 16259,
  ".)": 2677,
  ".),": 11165,
  ".).": 8787,
  ".):": 47618,
  ".*": 12907,
  ".**": 18333,
  ".,": 1143,
  ".-": 12740,
  ".--": 46531,
  "..": 950,
  "...": 2026,
  "...\"": 19110,
  "...\")": 30005,
  "...')": 38958,
  "...)": 30695,
  "...,": 27040,
  "....": 5592,
  ".....": 30298,
  "........": 13548,
  "................": 26315,
  "...]": 29185,
  "../": 17893,
  "../../": 40256,
  "./": 18380,
  ".:": 11171,
  ".;": 5282,
  ".<": 15602,
  ".?": 38643,
  ".[": 18334,
  ".\\": 23113,
  ".]": 12879,
  ".],": 46496,
  "._": 2077,
  ".__": 5209,
  ".|": 7102,
  ".||": 13004,
  ".âĢ¦": 38506,
  ".âĢĶ": 22055,
  ".âĢĻ": 7478,
  ".âĢĻâĢĿ": 36676,
  ".âĢľ": 39913,
  ".âĢĿ": 1184,
  ".âĢĿ)": 44218,
  "/": 31,
  "/\"": 23955,
  "/\",": 38886,
  "/#": 45942,
  "/%": 22953,
  "/'": 19789,
  "/')": 41091,
  "/',": 26481,
  "/(": 21429,
  "/)": 20491,
  "/),": 45263,
  "/).": 35211,
  "/*": 44494,
  "/,": 35869,
  "/-": 29256,
  "/.": 17396,
  "//": 1559,
  "////": 24556,
  "////////": 38442,
  "/<": 31194,
  "/>": 23720,
  "/?": 35005,
  "/\\": 45665,
  "/__": 48413,
  "/{": 15047,
  "/{}": 27852,
  "/~": 38392,
  "0": 32,
  "1": 33,
  "2": 34,
  "3": 35,
  "4": 36,
  "5": 37,
  "6": 38,
  "7": 39,
  "8": 40,
  "9": 41,
  ":": 42,
  ":\"": 25898,
  ":\")": 31819,
  ":\",": 23148,
  ":%": 17151,
  ":'": 32266,
  ":')": 41518,
  ":',": 25993,
  ":(": 45413,
  ":*": 15709,
  ":**": 3967,
  ":,": 20103,
  ":-": 15383,
  ":.": 17805,
  ":/": 39885,
  "://": 1742,
  "::": 9533,
  "::::": 44240,
  ":\\": 19199,
  ":]": 13372,
  ":])": 28344,
  ":],": 34775,
  ":`": 11711,
  ":`~": 44551,
  ":{": 42313,
  ":|": 44189,
  ":||": 11887,
  ";": 43,
  ";\"": 34765,
  ";'": 42372,
  ";\\": 41227,
  "<": 44,
  "</": 9617,
  "<<": 33691,
  "<empty_output>": 16,
  "<file_sep>": 5,
  "<filename>": 6,
  "<gh_stars>": 7,
  "<issue_closed>": 10,
  "<issue_comment>": 9,
  "<issue_start>": 8,
  "<jupyter_code>": 13,
  "<jupyter_output>": 14,
  "<jupyter_script>": 15,
  "<jupyter_start>": 11,
  "<jupyter_text>": 12,
  "<repo_name>": 3,
  "<reponame>": 4,
  "<|endoftext|>": 0,
  "<|im_end|>": 2,
  "<|im_start|>": 1,
  "=": 45,
  "=\"": 2671,
  "=\"\"": 44623,
  "=\"\",": 38232,
  "=\"#": 46429,
  "=\",": 48389,
  "=\"<": 43875,
  "=%": 23446,
  "='": 2069,
  "='')": 37043,
  "='',": 28108,
  "=',": 38044,
  "='/": 43538,
  "='<": 35588,
  "=(": 8615,
  "=('": 37360,
  "=-": 15196,
  "=.": 43313,
  "==": 1189,
  "==\"": 35840,
  "=='": 31675,
  "===": 28733,
  "====": 2031,
  "========": 3517,
  "============": 31156,
  "================": 6414,
  "================================": 12704,
  "================================================================": 28909,
  "=[": 7407,
  "=[\"": 22227,
  "=['": 15243,
  "=[]": 30208,
  "=[],": 39381,
  "=\\": 24814,
  "=_": 20968,
  "={": 8417,
  "={\"": 28292,
  "={'": 19837,
  "={}": 21692,
  "=âĢĿ": 36945,
  ">": 46,
  ">\"": 22875,
  ">\")": 43900,
  ">\",": 24165,
  ">'": 21007,
  ">')": 36102,
  ">',": 19307,
  ">)": 48622,
  ">,": 18128,
  ">.": 19369,
  "><": 21198,
  "></": 29299,
  ">=": 31615,
  ">>": 7791,
  ">>>": 36991,
  ">\\": 27613,
  ">`": 34869,
  "?": 47,
  "?!": 17593,
  "?\"": 4817,
  "?\",": 30137,
  "?\".": 36085,
  "?'": 27285,
  "?)": 14199,
  "?),": 41630,
  "?).": 34251,
  "?*": 46177,
  "?**": 11399,
  "?,": 27619,
  "?.": 34710,
  "?:": 29257,
  "?<": 15137,
  "??": 16693,
  "?]": 44243,
  "?](": 41346,
  "?|": 44817,
  "?||": 47179,
  "?âĢĻ": 24022,
  "?âĢĿ": 6491,
  "@": 48,
  "@@": 41407,
  "A": 49,
  "AA": 6676,
  "AAAA": 26024,
  "AAAAAAAA": 44843,
  "AB": 5431,
  "ABA": 31557,
  "ABASE": 43449,
  "ABC": 35542,
  "ABILITY": 27085,
  "ABLE": 16121,
  "ABS": 45119,
  "AC": 3144,
  "ACA": 40645,
  "ACC": 28749,
  "ACE": 16065,
  "ACH": 24226,
  "ACHE": 46084,
  "ACK": 14416,
  "ACP": 32467,
  "ACS": 35403,
  "ACT": 12199,
  "ACTION": 45441,
  "AD": 3907,
  "ADA": 35758,
  "ADD": 35999,
  "ADDR": 45092,
  "ADE": 36968,
  "ADHD": 34422,
  "ADS": 40128,
  "AE": 25331,
  "AF": 11651,
  "AG": 6801,
  "AGE": 14882,
  "AGES": 31503,
  "AH": 33296,
  "AI": 13701,
  "AIDS": 18457,
  "AK": 26291,
  "AL": 3206,
  "ALE": 32977,
  "ALL": 12631,
  "ALLY": 46567,
  "ALS": 31927,
  "ALT": 43878,
  "ALTH": 40096,
  "AM": 4153,
  "AMA": 25207,
  "AML": 38348,
  "AMP": 20805,
  "AMPLE": 41053,
  "AMS": 30114,
  "AN": 2810,
  "ANCE": 27305,
  "AND": 12386,
  "ANG": 22899,
  "ANGE": 40617,
  "ANK": 30483,
  "ANN": 32131,
  "ANS": 26498,
  "ANT": 17321,
  "ANY": 46409,
  "AP": 3872,
  "APA": 39025,
  "APE": 44368,
  "APH": 34857,
  "API": 16073,
  "APP": 28117,
  "APS": 45918,
  "APTER": 41958,
  "AR": 2285,
  "ARA": 46210,
  "ARC": 26289,
  "ARCH": 24396,
  "ARD": 20055,
  "ARE": 16562,
  "ARI": 33256,
  "ARM": 39042,
  "ARN": 45739,
  "ARP": 42275,
  "ARS": 14254,
  "ART": 10642,
  "ARY": 21495,
  "AS": 2211,
  "ASC": 42304,
  "ASD": 35194,
  "ASE": 13108,
  "ASH": 22246,
  "ASK": 34260,
  "ASP": 41086,
  "ASS": 15844,
  "AST": 15333,
  "AT": 2062,
  "ATA": 14246,
  "ATCH": 23498,
  "ATE": 9081,
  "ATED": 25939,
  "ATER": 32094,
  "ATES": 47533,
  "ATH": 12455,
  "ATION": 8985,
  "ATIONS": 28074,
  "ATIVE": 47554,
  "ATM": 41167,
  "ATO": 35472,
  "ATOR": 36049,
  "ATS": 44598,
  "ATT": 29430,
  "AU": 37531,
  "AUTH": 30958,
  "AV": 12052,
  "AVE": 29005,
  "AW": 36025,
  "AWS": 31261,
  "AX": 43598,
  "AY": 32667,
  "Ab": 5921,
  "Abd": 47198,
  "About": 9629,
  "Above": 32393,
  "Abs": 28337,
  "Absol": 42686,
  "Abstract": 22560,
  "Ac": 10580,
  "Academ": 33105,
  "Academic": 43027,
  "Acc": 14175,
  "Accept": 29201,
  "Access": 15068,
  "Accessed": 37730,
  "According": 5449,
  "Account": 25008,
  "Across": 38090,
  "Act": 6868,
  "Action": 16521,
  "Actions": 43507,
  "Active": 25979,
  "Activities": 39232,
  "Activity": 11085,
  "Acts": 33465,
  "Actually": 39772,
  "Acute": 47323,
  "Ad": 4503,
  "Adam": 31019,
  "Adams": 46774,
  "Adapt": 29713,
  "Add": 7684,
  "AddField": 47340,
  "Added": 42245,
  "Adding": 32080,
  "Additional": 18024,
  "Additionally": 16814,
  "Address": 22192,
  "Addressing": 39829,
  "Adjust": 45439,
  "Admin": 25651,
  "Adult": 41985,
  "Adv": 23172,
  "Advanced": 34892,
  "Advantages": 37035,
  "Af": 15678,
  "Aff": 34196,
  "Afric": 19535,
  "Africa": 39208,
  "African": 25078,
  "After": 4582,
  "Ag": 12478,
  "Again": 22684,
  "Age": 24679,
  "Agent": 32150,
  "Agg": 38286,
  "Agricult": 34434,
  "Agriculture": 47781,
  "Ah": 23921,
  "Air": 19345,
  "Ak": 46030,
  "Al": 2219,
  "Alcohol": 34578,
  "Alert": 42539,
  "Alex": 20794,
  "Alexander": 39437,
  "Alg": 39978,
  "Ali": 32595,
  "Alice": 7356,
  "Align": 48876,
  "All": 4518,
  "Allow": 30570,
  "Almost": 18700,
  "AlmostEqual": 30093,
  "Along": 24974,
  "Alpha": 35599,
  "Already": 42851,
  "Also": 9330,
  "Alt": 42750,
  "Alter": 34368,
  "AlterField": 40071,
  "Altern": 23393,
  "Alternative": 42797,
  "Alternatively": 40714,
  "Although": 5788,
  "Always": 29420,
  "Am": 8112,
  "Amazon": 47136,
  "Amb": 42616,
  "Americ": 6076,
  "America": 26861,
  "American": 7441,
  "Americans": 20013,
  "Among": 14775,
  "Amount": 48429,
  "An": 2089,
  "Anal": 15192,
  "Analy": 24499,
  "Analysis": 27931,
  "Ancient": 30714,
  "And": 3528,
  "Anderson": 47132,
  "Andrew": 41486,
  "Ang": 17621,
  "Angle": 45637,
  "Animal": 32152,
  "Animals": 42223,
  "Ann": 22940,
  "Anna": 46484,
  "Anne": 41575,
  "Annot": 45116,
  "Annual": 44209,
  "Another": 4809,
  "Ans": 38755,
  "Answer": 21350,
  "Ant": 12651,
  "Anti": 35813,
  "Antib": 44077,
  "Anxiety": 45215,
  "Any": 10518,
  "Anyone": 32283,
  "Ap": 23807,
  "Apart": 28684,
  "Api": 27846,
  "App": 6477,
  "Appendix": 44338,
  "Apple": 39080,
  "Application": 22509,
  "Applications": 41768,
  "Apply": 34770,
  "Applying": 29831,
  "Appro": 40873,
  "Approximately": 40384,
  "Apr": 41966,
  "April": 16732,
  "Aqu": 35044,
  "Ar": 3780,
  "Arab": 27771,
  "Arabic": 44970,
  "Arch": 17936,
  "Archae": 37318,
  "Are": 9215,
  "Area": 25084,
  "Arg": 38654,
  "Args": 28769,
  "Argument": 21249,
  "ArgumentParser": 27747,
  "Arm": 38257,
  "Arn": 47476,
  "Around": 27344,
  "Arr": 40909,
  "Array": 16483,
  "Art": 9393,
  "Arthur": 27037,
  "Article": 17979,
  "Articles": 44239,
  "Artificial": 34505,
  "As": 1653,
  "Ash": 35373,
  "Asia": 47018,
  "Asian": 39990,
  "Aside": 34039,
  "Ask": 18986,
  "Ass": 9519,
  "Assert": 46923,
  "Assessment": 34235,
  "Associ": 29213,
  "Ast": 23042,
  "Astron": 41741,
  "At": 3473,
  "Atlantic": 33960,
  "Att": 10595,
  "Attention": 41319,
  "Attr": 41441,
  "Attribute": 24659,
  "Aud": 26164,
  "Audio": 39461,
  "Aug": 14111,
  "August": 17411,
  "Aust": 16915,
  "Austral": 20709,
  "Australia": 30877,
  "Australian": 34123,
  "Aut": 8317,
  "Auth": 32532,
  "Authent": 34488,
  "Author": 15051,
  "Authors": 37835,
  "Auto": 23516,
  "AutoField": 45081,
  "Autom": 36948,
  "Av": 11959,
  "Available": 30706,
  "Average": 27425,
  "Avoid": 22834,
  "Axis": 41712,
  "Ay": 45496,
  "Az": 32789,
  "B": 50,
  "BA": 10833,
  "BACK": 32910,
  "BAL": 39923,
  "BAS": 44262,
  "BASE": 27777,
  "BB": 20369,
  "BC": 6190,
  "BD": 11526,
  "BE": 19698,
  "BER": 22089,
  "BF": 31643,
  "BG": 40057,
  "BH": 48572,
  "BI": 11718,
  "BIT": 43547,
  "BL": 11471,
  "BLANK": 48131,
  "BLE": 33825,
  "BLIC": 45581,
  "BM": 10141,
  "BMI": 39692,
  "BN": 6409,
  "BO": 13950,
  "BOT": 42416,
  "BP": 22304,
  "BR": 21040,
  "BS": 7770,
  "BT": 6632,
  "BU": 27136,
  "BUG": 24873,
  "BUT": 26340,
  "BV": 23347,
  "BY": 25466,
  "Ba": 35704,
  "Baby": 45179,
  "Back": 9911,
  "Backend": 47713,
  "Background": 28753,
  "Bad": 26670,
  "Bal": 25494,
  "Balance": 48216,
  "Ball": 38314,
  "Ban": 35716,
  "Band": 35437,
  "Bank": 35654,
  "Bar": 14550,
  "Barn": 48698,
  "Bas": 14825,
  "Base": 10080,
  "BaseModel": 42331,
  "Based": 11192,
  "Basic": 22177,
  "Basically": 37400,
  "Batch": 24986,
  "BatchNorm": 41823,
  "Battle": 42284,
  "Bay": 27451,
  "Be": 6077,
  "Because": 8653,
  "Becoming": 44120,
  "Bed": 44912,
  "Bee": 44818,
  "Before": 6121,
  "Begin": 20990,
  "Beginning": 35978,
  "Behavior": 33894,
  "Being": 16721,
  "Bel": 13755,
  "Bell": 44281,
  "Below": 19798,
  "Ben": 14414,
  "Benefits": 26834,
  "Benny": 48901,
  "Ber": 24726,
  "Bern": 44042,
  "Besides": 22204,
  "Best": 21707,
  "Bet": 16170,
  "Better": 38169,
  "Between": 22516,
  "Bey": 19164,
  "Beyond": 19443,
  "Bi": 19514,
  "Big": 20429,
  "Bill": 33500,
  "Bin": 47982,
  "Binary": 39503,
  "Bind": 47527,
  "Bio": 25111,
  "Biological": 45886,
  "Bird": 35655,
  "Birds": 45510,
  "Birth": 42518,
  "Bit": 28168,
  "Bl": 6353,
  "Black": 14270,
  "Block": 18621,
  "Blood": 27152,
  "Blue": 23390,
  "Bo": 23641,
  "Board": 33685,
  "Bob": 6777,
  "Body": 22746,
  "Bol": 47484,
  "Bon": 30904,
  "Bone": 48455,
  "Book": 15654,
  "Books": 27133,
  "Boolean": 30600,
  "BooleanField": 43920,
  "Born": 25212,
  "Boston": 43028,
  "Bot": 24412,
  "Both": 12857,
  "Bottom": 41489,
  "Bound": 43232,
  "Box": 11223,
  "Br": 22233,
  "Bra": 21124,
  "Brain": 29775,
  "Branch": 39873,
  "Brand": 43089,
  "Brazil": 38963,
  "Bre": 17486,
  "Break": 39945,
  "Breast": 38390,
  "Brief": 47662,
  "Brien": 37487,
  "Bring": 48111,
  "Brit": 17717,
  "Britain": 48896,
  "British": 22251,
  "Bro": 26729,
  "Broad": 38570,
  "Brow": 32668,
  "Brown": 26350,
  "Browse": 43679,
  "Bs": 18713,
  "Bu": 32110,
  "Bud": 42469,
  "Budd": 34805,
  "Buffer": 35667,
  "Build": 18588,
  "Builder": 33731,
  "Building": 20115,
  "Built": 44610,
  "Bul": 26129,
  "Bullying": 49101,
  "Bur": 25758,
  "Burn": 45248,
  "Bus": 40557,
  "Business": 25745,
  "But": 2596,
  "Button": 15736,
  "Buy": 35334,
  "By": 3087,
  "Bytes": 38594,
  "C": 51,
  "CA": 8970,
  "CAD": 19879,
  "CADE": 31356,
  "CAM": 39776,
  "CAN": 36121,
  "CAP": 33467,
  "CAR": 36461,
  "CAS": 25629,
  "CASCADE": 32594,
  "CAT": 39813,
  "CB": 29032,
  "CBD": 49122,
  "CBT": 33162,
  "CC": 5137,
  "CCC": 35233,
  "CCESS": 46251,
  "CD": 6998,
  "CDC": 21263,
  "CE": 5628,
  "CEPT": 44099,
  "CES": 26617,
  "CESS": 42452,
  "CF": 23378,
  "CG": 33647,
  "CH": 5229,
  "CHA": 42829,
  "CHANT": 42209,
  "CHANTABILITY": 43180,
  "CHAR": 45293,
  "CHECK": 45487,
  "CHO": 29676,
  "CI": 12921,
  "CID": 41944,
  "CL": 7430,
  "CLASS": 30745,
  "CLC": 32834,
  "CLE": 48902,
  "CLUD": 34682,
  "CLUDING": 37853,
  "CM": 10625,
  "CN": 11308,
  "CNN": 39174,
  "CO": 4105,
  "CODE": 33208,
  "COL": 20397,
  "COLOR": 32753,
  "COM": 30742,
  "COMM": 29267,
  "COMP": 30383,
  "CON": 10835,
  "CONF": 34072,
  "CONFIG": 28252,
  "CONN": 48430,
  "CONT": 30942,
  "COR": 41743,
  "COS": 26641,
  "COUNT": 33740,
  "COVID": 36200,
  "CP": 8493,
  "CPU": 44837,
  "CR": 9088,
  "CRE": 27114,
  "CREATE": 38965,
  "CS": 5826,
  "CSE": 26500,
  "CSI": 41452,
  "CSS": 44337,
  "CT": 5335,
  "CU": 38393,
  "CV": 16513,
  "CY": 31116,
  "Ca": 26532,
  "Cache": 39008,
  "Cal": 10745,
  "Calcul": 26910,
  "Calculate": 44345,
  "California": 28314,
  "Call": 12800,
  "Callback": 44780,
  "Cam": 19019,
  "Cambridge": 35723,
  "Camera": 47025,
  "Camp": 32126,
  "Can": 7306,
  "Canada": 26760,
  "Canadian": 31661,
  "Cancer": 31333,
  "Cand": 38185,
  "Cannot": 40206,
  "Cap": 21243,
  "Capital": 39832,
  "Capt": 32612,
  "Captain": 45278,
  "Car": 11811,
  "Carbon": 28829,
  "Card": 25952,
  "Care": 20158,
  "Carl": 34098,
  "Cart": 45339,
  "Cas": 34915,
  "Case": 10802,
  "Cast": 32527,
  "Cat": 27772,
  "Category": 27348,
  "Cath": 30758,
  "Catholic": 37485,
  "Cats": 47304,
  "Causes": 29621,
  "Cele": 40041,
  "Cell": 23645,
  "Cent": 13126,
  "Center": 28406,
  "Central": 20486,
  "Century": 39032,
  "Cert": 36134,
  "Certain": 25577,
  "Certainly": 47302,
  "Ch": 2083,
  "Chain": 47703,
  "Chall": 27649,
  "Challenges": 40449,
  "Change": 23417,
  "Changed": 43986,
  "Changes": 35559,
  "Changing": 41610,
  "Channel": 22562,
  "ChannelType": 43179,
  "Chapter": 7176,
  "Char": 9758,
  "CharField": 15800,
  "Character": 27929,
  "Charl": 41867,
  "Charles": 26776,
  "Chart": 41485,
  "Chat": 40558,
  "Che": 8403,
  "Check": 10280,
  "CheckBox": 48485,
  "Chem": 39058,
  "Chemical": 33232,
  "Chicago": 37052,
  "Chief": 32637,
  "Child": 9729,
  "Children": 12321,
  "China": 18776,
  "Chinese": 24925,
  "Cho": 29943,
  "Choice": 40471,
  "Choose": 21197,
  "Choosing": 34416,
  "Chris": 47455,
  "Christ": 12748,
  "Christian": 20912,
  "Christmas": 46172,
  "Chronic": 32530,
  "Church": 40595,
  "Cir": 25269,
  "Circ": 47000,
  "Cisco": 27684,
  "Cit": 37266,
  "Citation": 33550,
  "Cite": 29594,
  "City": 26385,
  "Civil": 29075,
  "Cl": 3603,
  "Clark": 48583,
  "Class": 8530,
  "Classification": 40541,
  "Classifier": 34086,
  "Cle": 19293,
  "Clean": 24099,
  "Clear": 31550,
  "Clearly": 38454,
  "Click": 11705,
  "Client": 15866,
  "Climate": 20799,
  "Clinical": 32627,
  "Close": 28948,
  "Cloud": 22630,
  "Cluster": 34120,
  "Cmd": 42974,
  "Co": 8959,
  "CoV": 23954,
  "Code": 15832,
  "Coff": 46080,
  "Cognitive": 37701,
  "Col": 5133,
  "Cola": 43763,
  "Cold": 35730,
  "Coll": 25538,
  "Collab": 35384,
  "Collect": 29985,
  "Collection": 28958,
  "College": 40108,
  "Collins": 41225,
  "Colon": 45920,
  "Color": 13646,
  "Colors": 45390,
  "Colour": 43572,
  "Columb": 31870,
  "Column": 15471,
  "Com": 3750,
  "Comb": 25976,
  "Come": 34056,
  "Comm": 9482,
  "Command": 17777,
  "Comment": 30770,
  "Comments": 32342,
  "Commercial": 36726,
  "Commit": 43942,
  "Common": 13883,
  "Commun": 15991,
  "Communication": 36763,
  "Community": 28538,
  "Comp": 13317,
  "Compan": 40792,
  "Companies": 45338,
  "Compar": 26848,
  "Compare": 35589,
  "Compared": 38868,
  "Comparison": 48718,
  "Compet": 39718,
  "Complete": 34486,
  "Complex": 40050,
  "Component": 35082,
  "Comput": 16078,
  "Compute": 45319,
  "Computer": 24182,
  "Con": 2557,
  "Conc": 33630,
  "Conclusion": 6561,
  "Cond": 21998,
  "Condition": 33621,
  "Conditions": 48070,
  "Conf": 19168,
  "Config": 10020,
  "Configuration": 29340,
  "Conflict": 46583,
  "Cong": 16733,
  "Congratulations": 23911,
  "Congress": 37200,
  "Conn": 10585,
  "Connect": 27980,
  "Connecting": 36272,
  "Connection": 23591,
  "Connell": 47733,
  "Connor": 38261,
  "Cons": 8724,
  "Conse": 37899,
  "Consequ": 39789,
  "Conservation": 38676,
  "Consider": 16865,
  "Considering": 39539,
  "Const": 15008,
  "Constant": 43835,
  "Constraint": 42992,
  "Construct": 39715,
  "Construction": 39722,
  "Consumer": 44906,
  "Cont": 5121,
  "Contact": 18320,
  "Container": 36989,
  "Contains": 47976,
  "Contemporary": 30216,
  "Content": 17878,
  "Contents": 46141,
  "Context": 17548,
  "Contin": 17217,
  "Continue": 26226,
  "Contrary": 42393,
  "Control": 17027,
  "ControlPlane": 36634,
  "Controller": 32568,
  "Conv": 19326,
  "Convert": 37983,
  "Cook": 36720,
  "Cool": 41979,
  "Coord": 34322,
  "Cop": 36879,
  "Copy": 32601,
  "Copyright": 14129,
  "Cor": 16116,
  "Core": 18443,
  "Corn": 35068,
  "Correct": 38323,
  "Cos": 43385,
  "Cost": 22720,
  "Could": 23855,
  "Count": 9825,
  "Counter": 35158,
  "Country": 33911,
  "Cour": 41079,
  "Course": 17505,
  "Cov": 46079,
  "Cover": 38456,
  "Cr": 25711,
  "Cra": 36565,
  "Cre": 9442,
  "Creat": 24727,
  "Create": 11870,
  "CreateModel": 46896,
  "Created": 28752,
  "Creating": 19555,
  "Creation": 47558,
  "Creative": 43837,
  "Cred": 37512,
  "Credit": 31051,
  "Crit": 20982,
  "Critical": 35147,
  "Cross": 16679,
  "CrossRef": 28127,
  "Crypt": 41461,
  "Cs": 17208,
  "Ctrl": 40667,
  "Cu": 47663,
  "Cult": 46380,
  "Cultural": 27553,
  "Culture": 40142,
  "Cur": 15533,
  "Curious": 38497,
  "Current": 12183,
  "Currently": 21593,
  "Curve": 39132,
  "Custom": 21460,
  "Customer": 41076,
  "Cut": 25285,
  "Cy": 23601,
  "Cyber": 38547,
  "D": 52,
  "DA": 4895,
  "DAR": 38225,
  "DAT": 27543,
  "DATA": 23033,
  "DATE": 44433,
  "DAY": 28458,
  "DB": 13684,
  "DC": 14503,
  "DD": 18817,
  "DE": 6279,
  "DEBUG": 29664,
  "DEC": 32878,
  "DEF": 33203,
  "DEFAULT": 23448,
  "DEL": 30248,
  "DELETE": 47593,
  "DEP": 39141,
  "DER": 29738,
  "DES": 47983,
  "DESCRIPT": 42742,
  "DEV": 37555,
  "DEX": 31958,
  "DEs": 39611,
  "DF": 5576,
  "DH": 38300,
  "DI": 14788,
  "DIR": 15862,
  "DIRECT": 42669,
  "DIS": 33944,
  "DIT": 22665,
  "DL": 11018,
  "DM": 19175,
  "DN": 40559,
  "DNA": 17050,
  "DO": 14894,
  "DOT": 47664,
  "DOWN": 40626,
  "DP": 7548,
  "DR": 10541,
  "DS": 8521,
  "DSM": 42349,
  "DT": 17679,
  "DUCT": 34933,
  "Da": 39148,
  "Daily": 31881,
  "Dam": 37580,
  "Dan": 23069,
  "Daniel": 30933,
  "Dar": 31602,
  "Dark": 36254,
  "Darwin": 43059,
  "Dat": 15002,
  "Data": 5127,
  "DataFrame": 15890,
  "Database": 34876,
  "Dataset": 21931,
  "Date": 10912,
  "DateTime": 26245,
  "DateTimeField": 35577,
  "Dav": 16873,
  "David": 21070,
  "Davis": 46999,
  "Day": 15064,
  "Days": 38697,
  "De": 5868,
  "Dead": 47305,
  "Dear": 35097,
  "Death": 34698,
  "Deb": 28380,
  "Dec": 12654,
  "December": 19172,
  "Decimal": 42574,
  "Decl": 37751,
  "Deep": 29602,
  "Def": 8792,
  "Default": 23572,
  "Define": 43119,
  "Definition": 18543,
  "Definitions": 46371,
  "Deg": 42251,
  "Del": 22213,
  "Dele": 23610,
  "Delete": 29548,
  "Delivery": 48843,
  "Delta": 35469,
  "Dem": 21388,
  "Den": 30199,
  "Dense": 37438,
  "Dental": 38301,
  "Dep": 11254,
  "Department": 27444,
  "Depending": 25721,
  "Depression": 40489,
  "Depth": 34145,
  "Der": 30913,
  "Des": 5881,
  "Desc": 19196,
  "Describe": 37964,
  "Description": 18454,
  "Design": 18725,
  "Designing": 46397,
  "Despite": 7758,
  "Dest": 31063,
  "Det": 11291,
  "Detail": 41753,
  "Details": 32395,
  "Determ": 22778,
  "Determine": 44208,
  "Deut": 39667,
  "Dev": 14806,
  "Develop": 15568,
  "Developing": 35675,
  "Development": 30488,
  "Device": 20739,
  "Di": 12117,
  "Diabetes": 35013,
  "Diagn": 27746,
  "Diagnosis": 40638,
  "Dialog": 30783,
  "Dict": 12408,
  "Dictionary": 40928,
  "Did": 12998,
  "Die": 42703,
  "Diet": 30272,
  "Diff": 13812,
  "Difference": 47897,
  "Different": 21616,
  "Dig": 16361,
  "Digital": 22323,
  "Dim": 27259,
  "Din": 40949,
  "Dir": 22790,
  "Direct": 16118,
  "Director": 47284,
  "Directory": 34275,
  "Dis": 9996,
  "Disc": 13602,
  "Disclaimer": 38052,
  "Discover": 33978,
  "Discovery": 44811,
  "Discuss": 35247,
  "Discussion": 33634,
  "Dise": 40042,
  "Display": 35322,
  "Dist": 16535,
  "Distance": 33742,
  "Distribution": 35388,
  "Div": 21757,
  "Do": 6248,
  "DoS": 45391,
  "Doc": 16349,
  "Doctor": 43539,
  "Doctors": 33858,
  "Document": 24217,
  "Documents": 48286,
  "Does": 14748,
  "Dog": 44378,
  "Dogs": 40833,
  "Dom": 21589,
  "Domain": 34804,
  "Don": 8084,
  "Donald": 20214,
  "Done": 41462,
  "Donnell": 46762,
  "Dou": 32232,
  "Double": 33743,
  "Down": 11782,
  "Download": 15880,
  "Dr": 6502,
  "Draw": 21156,
  "Drawing": 40232,
  "Drinking": 49003,
  "Drive": 45774,
  "Driver": 37799,
  "Drop": 31203,
  "Dropout": 45996,
  "Drug": 33297,
  "Dry": 35026,
  "Ds": 21148,
  "Du": 34204,
  "Due": 19343,
  "Duration": 44973,
  "During": 6307,
  "Dutch": 45001,
  "Dynamic": 46241,
  "E": 53,
  "EA": 14555,
  "EAR": 42433,
  "EC": 3700,
  "ECD": 22511,
  "ECH": 34477,
  "ECK": 34137,
  "ECT": 8647,
  "ECTION": 28528,
  "ED": 3010,
  "EDIT": 37033,
  "EDS": 49128,
  "EE": 8405,
  "EEE": 19522,
  "EEK": 42070,
  "EF": 9434,
  "EFL": 42495,
  "EG": 9944,
  "EGER": 46856,
  "EL": 4210,
  "ELD": 36142,
  "ELECT": 17964,
  "ELL": 21344,
  "ELP": 43334,
  "ELS": 37692,
  "ELTS": 34462,
  "EM": 3709,
  "EMA": 12425,
  "EMAIL": 15242,
  "EMENT": 26040,
  "EMS": 29502,
  "EN": 2680,
  "ENA": 45815,
  "ENCE": 20149,
  "ENCES": 48687,
  "END": 16317,
  "ENG": 30069,
  "ENGTH": 42283,
  "ENS": 22239,
  "ENSE": 19152,
  "ENT": 6213,
  "ENTER": 40426,
  "ENTIAL": 48480,
  "ENTS": 22827,
  "ENV": 43269,
  "EP": 7293,
  "EPA": 27175,
  "EPS": 42733,
  "ER": 1754,
  "ERAL": 49126,
  "ERC": 31540,
  "ERE": 14298,
  "ERIC": 35757,
  "ERN": 30299,
  "ERO": 38700,
  "ERR": 15297,
  "ERROR": 22538,
  "ERS": 9670,
  "ERSION": 27039,
  "ERT": 16090,
  "ERV": 22840,
  "ERY": 33642,
  "ES": 2097,
  "ESA": 37053,
  "ESC": 23110,
  "ESCO": 17067,
  "ESCRIPT": 34796,
  "ESS": 9248,
  "EST": 8242,
  "ET": 3438,
  "ETA": 41709,
  "ETE": 31060,
  "ETH": 47792,
  "ETS": 38345,
  "EU": 25953,
  "EV": 16091,
  "EW": 22843,
  "EX": 9324,
  "EXP": 43503,
  "EXT": 18309,
  "Each": 10313,
  "Earl": 30310,
  "Earlier": 33511,
  "Early": 15127,
  "Earth": 18458,
  "East": 25698,
  "Eastern": 35858,
  "Easy": 40880,
  "Eat": 36693,
  "Eating": 28925,
  "Ec": 29352,
  "Econom": 38528,
  "Economic": 31970,
  "Ed": 7525,
  "Edge": 36270,
  "Edit": 15867,
  "Edited": 48014,
  "Editor": 25897,
  "Eds": 32841,
  "Educ": 16420,
  "Education": 22048,
  "Educational": 45409,
  "Edward": 41700,
  "Eff": 47782,
  "Effect": 22365,
  "Effective": 21772,
  "Effects": 37059,
  "Egg": 40492,
  "Egypt": 38193,
  "Eight": 40477,
  "Either": 45814,
  "El": 13793,
  "Ele": 35451,
  "Elect": 15131,
  "Electric": 31332,
  "Electronic": 43217,
  "Element": 13975,
  "Elements": 42640,
  "Elizabeth": 40168,
  "Ell": 36602,
  "Em": 10809,
  "Email": 26903,
  "Emb": 20458,
  "Embed": 29817,
  "Emer": 28662,
  "Emergency": 49141,
  "Emily": 43751,
  "Emotional": 39909,
  "Emp": 35112,
  "Employ": 37015,
  "Empty": 40661,
  "En": 5056,
  "Enable": 44721,
  "Enabled": 38566,
  "Enc": 17883,
  "Encoder": 36237,
  "Encourage": 43248,
  "End": 13182,
  "Energy": 21657,
  "Eng": 9292,
  "Engine": 23353,
  "Engineering": 45601,
  "England": 47063,
  "English": 14901,
  "Enh": 39079,
  "Enjoy": 45422,
  "Ens": 32687,
  "Ensure": 42119,
  "Ent": 14306,
  "Enter": 17656,
  "Entity": 37475,
  "Entry": 25066,
  "Enum": 21207,
  "Env": 38110,
  "Environment": 17088,
  "Environmental": 22685,
  "Ep": 21484,
  "Equ": 17298,
  "Equal": 5292,
  "Equals": 30909,
  "Er": 24046,
  "Error": 3505,
  "Es": 21913,
  "Ess": 19654,
  "Essay": 35951,
  "Essential": 46075,
  "Est": 14925,
  "Estab": 29183,
  "Estimated": 40158,
  "Et": 47757,
  "Eth": 23348,
  "Europe": 14288,
  "European": 17317,
  "Ev": 15722,
  "Eval": 24324,
  "Evaluation": 44726,
  "Even": 8155,
  "Event": 13962,
  "Events": 42727,
  "Eventually": 33240,
  "Ever": 28497,
  "Every": 8600,
  "Everyone": 23460,
  "Everything": 33057,
  "Evidence": 33619,
  "Evolution": 43025,
  "Ex": 2516,
  "Exactly": 45785,
  "Exam": 48941,
  "Example": 8412,
  "Examples": 17921,
  "Exc": 32223,
  "Except": 45168,
  "Exception": 11432,
  "Exec": 19149,
  "Execution": 31322,
  "Exercise": 27135,
  "Exist": 44737,
  "Exit": 38948,
  "Exodus": 42277,
  "Exp": 17960,
  "Expected": 39981,
  "Exper": 16954,
  "Experiment": 40517,
  "Experts": 31340,
  "Expl": 10655,
  "Explain": 36971,
  "Explanation": 35092,
  "Explore": 24869,
  "Exploring": 22663,
  "Export": 46188,
  "Exposure": 42764,
  "Expr": 42260,
  "Expression": 34891,
  "Ext": 12267,
  "Extension": 39142,
  "External": 41564,
  "Extra": 38585,
  "Extract": 34683,
  "Eye": 36307,
  "F": 54,
  "FA": 8533,
  "FAIL": 39290,
  "FAO": 45473,
  "FAULT": 18549,
  "FC": 12236,
  "FCs": 39931,
  "FD": 33474,
  "FDA": 30088,
  "FE": 20096,
  "FER": 36500,
  "FET": 37892,
  "FF": 10209,
  "FFFF": 40515,
  "FI": 19868,
  "FIG": 19207,
  "FIL": 15410,
  "FILE": 19258,
  "FIX": 37158,
  "FL": 13859,
  "FLAGS": 39948,
  "FM": 34107,
  "FN": 22502,
  "FO": 12437,
  "FOR": 15789,
  "FORM": 22402,
  "FORMAT": 41504,
  "FP": 14528,
  "FR": 13422,
  "FREE": 49146,
  "FROM": 46510,
  "FS": 12213,
  "FT": 9940,
  "FTA": 40992,
  "FTWARE": 28784,
  "FW": 35991,
  "Fac": 31622,
  "Face": 28149,
  "Facebook": 48594,
  "Fact": 13486,
  "Factor": 42351,
  "Factors": 40529,
  "Factory": 22636,
  "Facts": 36455,
  "Failed": 27236,
  "Failure": 43044,
  "Fair": 36833,
  "Fall": 37241,
  "False": 4245,
  "Fam": 19593,
  "Family": 22842,
  "Far": 26999,
  "Farm": 36782,
  "Fast": 21793,
  "Fat": 34373,
  "Father": 33776,
  "Fe": 11114,
  "Fear": 48310,
  "Feature": 25660,
  "Features": 36074,
  "Feb": 16516,
  "February": 20251,
  "Federal": 29622,
  "Feed": 27268,
  "Feeling": 30386,
  "Fem": 28154,
  "Female": 40503,
  "Fer": 40860,
  "Few": 33337,
  "Fi": 14366,
  "Field": 5468,
  "Fields": 43633,
  "Fif": 37203,
  "Fig": 10462,
  "Figure": 7469,
  "Figures": 49030,
  "Fil": 13629,
  "File": 7618,
  "FileName": 43007,
  "Files": 29273,
  "Fill": 34958,
  "Filter": 18074,
  "Fin": 20558,
  "Final": 29288,
  "Finally": 7009,
  "Financial": 33683,
  "Find": 11933,
  "Finding": 26904,
  "Fine": 47373,
  "Fire": 24042,
  "First": 5345,
  "Firstly": 21028,
  "Fish": 33785,
  "Fit": 32533,
  "Five": 26423,
  "Fixed": 41463,
  "Fl": 10260,
  "Flag": 35060,
  "Flash": 47878,
  "Flat": 40260,
  "Flex": 45226,
  "Float": 25314,
  "Flor": 35344,
  "Florida": 45708,
  "Flow": 20619,
  "Flu": 29422,
  "Focus": 26380,
  "Fold": 46904,
  "Folder": 33903,
  "Follow": 11101,
  "Following": 14924,
  "Font": 27166,
  "Food": 15235,
  "Foods": 45043,
  "Foot": 29659,
  "For": 2193,
  "Force": 45807,
  "Fore": 14430,
  "Foreign": 19822,
  "ForeignKey": 23177,
  "Forest": 34598,
  "Form": 8132,
  "Format": 22058,
  "Formation": 44855,
  "Formatter": 34248,
  "Former": 44550,
  "Fort": 30119,
  "Fortunately": 28048,
  "Forward": 48444,
  "Found": 16413,
  "Four": 19622,
  "Fourth": 45425,
  "Fr": 25321,
  "Frame": 9967,
  "Franc": 37004,
  "France": 33488,
  "Frank": 25677,
  "Fre": 24745,
  "Fred": 37922,
  "Free": 14070,
  "Freedom": 40428,
  "French": 22243,
  "Frequency": 42593,
  "Frequently": 40835,
  "Fresh": 40058,
  "Friday": 33709,
  "Fried": 48844,
  "Friendly": 43951,
  "Friends": 40834,
  "From": 5212,
  "Front": 44062,
  "Fruit": 48529,
  "Fs": 24906,
  "Full": 20346,
  "Fun": 23844,
  "Func": 37942,
  "Function": 18226,
  "Functional": 47540,
  "Functions": 47542,
  "Fund": 25688,
  "Funding": 45923,
  "Further": 11733,
  "Furthermore": 16707,
  "Future": 33658,
  "G": 55,
  "GA": 14234,
  "GAN": 39800,
  "GB": 14201,
  "GC": 22675,
  "GD": 24607,
  "GDP": 39108,
  "GE": 10992,
  "GEN": 29840,
  "GER": 20180,
  "GET": 15081,
  "GF": 27012,
  "GG": 27614,
  "GH": 23960,
  "GI": 18480,
  "GIS": 27705,
  "GL": 13743,
  "GM": 19692,
  "GN": 35037,
  "GO": 21810,
  "GP": 16956,
  "GPS": 43859,
  "GPT": 48474,
  "GPU": 44554,
  "GR": 13087,
  "GRAM": 44372,
  "GRAPH": 43894,
  "GRO": 31596,
  "GS": 10411,
  "GT": 23321,
  "GW": 34839,
  "GY": 32710,
  "Ga": 28387,
  "Gal": 26898,
  "Gall": 40518,
  "Game": 28407,
  "Gar": 36482,
  "Gard": 30347,
  "Gas": 39814,
  "Gate": 29038,
  "Gather": 42960,
  "Ge": 9488,
  "Gen": 5650,
  "Gender": 32818,
  "Gene": 33003,
  "General": 12522,
  "Generally": 24853,
  "Generate": 46453,
  "Generator": 29771,
  "Generic": 41112,
  "Genesis": 30622,
  "Genetic": 35543,
  "Geo": 40099,
  "Geometry": 33650,
  "Georg": 39250,
  "George": 23958,
  "Ger": 47005,
  "Germ": 27013,
  "German": 19851,
  "Germany": 31810,
  "Get": 6197,
  "Gets": 41567,
  "Getting": 19921,
  "Getty": 33655,
  "Gi": 44745,
  "Git": 47180,
  "Give": 26533,
  "Given": 15423,
  "Gl": 10484,
  "Glob": 47715,
  "Global": 17270,
  "Gly": 49058,
  "Go": 6044,
  "Goal": 44474,
  "God": 14191,
  "Going": 37508,
  "Gold": 22090,
  "Golden": 40726,
  "Good": 14229,
  "Google": 9448,
  "Got": 42594,
  "Govern": 19079,
  "Government": 28573,
  "Gr": 27302,
  "Gra": 22007,
  "Grad": 39844,
  "Grade": 28692,
  "Gram": 43889,
  "Grand": 29975,
  "Grant": 39294,
  "Graph": 17327,
  "Great": 15635,
  "Greater": 44685,
  "Greek": 30406,
  "Green": 15420,
  "Greg": 41631,
  "Grid": 25665,
  "Ground": 36665,
  "Group": 13352,
  "Groups": 43443,
  "Growing": 31931,
  "Growth": 45551,
  "Gs": 18277,
  "Gu": 12385,
  "Guard": 49005,
  "Gui": 23334,
  "Guid": 20996,
  "Guide": 31535,
  "Guideline": 27469,
  "Guidelines": 46197,
  "Gy": 49103,
  "H": 56,
  "HA": 9136,
  "HC": 19123,
  "HCR": 41056,
  "HD": 8021,
  "HE": 4493,
  "HEAD": 32224,
  "HEADER": 49009,
  "HER": 23100,
  "HET": 44879,
  "HETATM": 47595,
  "HF": 31707,
  "HI": 29724,
  "HIV": 30194,
  "HL": 33851,
  "HO": 5775,
  "HOD": 39845,
  "HOME": 43678,
  "HOST": 30373,
  "HOUT": 21953,
  "HOW": 30403,
  "HP": 27678,
  "HPV": 47758,
  "HR": 15416,
  "HS": 9345,
  "HT": 8049,
  "HTML": 27769,
  "HTTP": 23432,
  "HV": 31581,
  "Ha": 34177,
  "Hab": 29801,
  "Habitat": 40170,
  "Had": 39855,
  "Hal": 45666,
  "Half": 39282,
  "Hall": 36549,
  "Ham": 29564,
  "Han": 46216,
  "Hand": 10985,
  "Handle": 40889,
  "Handler": 15642,
  "Happy": 31793,
  "Har": 25520,
  "Hard": 25994,
  "Harm": 44226,
  "Harv": 33799,
  "Harvard": 46925,
  "Has": 27831,
  "Hash": 37519,
  "Have": 5519,
  "Having": 15432,
  "Haw": 35236,
  "Hay": 39645,
  "He": 3681,
  "Head": 15697,
  "Header": 29223,
  "Health": 11095,
  "Healthy": 30819,
  "Hearing": 41506,
  "Heart": 28456,
  "Heat": 30359,
  "Heb": 32138,
  "Height": 29581,
  "Hel": 11653,
  "Hello": 19556,
  "Help": 19523,
  "Helper": 32787,
  "Helping": 48776,
  "Hem": 45475,
  "Hen": 23554,
  "Hence": 35391,
  "Henry": 27803,
  "Hep": 45571,
  "Her": 13860,
  "Here": 4590,
  "Hey": 22234,
  "Hg": 39187,
  "Hi": 26843,
  "Hig": 35842,
  "High": 12192,
  "Higher": 42877,
  "Hill": 31000,
  "His": 11952,
  "Hispanic": 36978,
  "Hist": 8523,
  "Histor": 23579,
  "Historic": 47775,
  "Historical": 25099,
  "Historically": 28133,
  "History": 13871,
  "Hit": 40547,
  "Ho": 42654,
  "Hol": 24624,
  "Hold": 41606,
  "Holy": 45476,
  "Hom": 39307,
  "Home": 16088,
  "Hon": 34946,
  "Honey": 46242,
  "Hop": 31086,
  "Hope": 42519,
  "Hor": 30355,
  "Horizontal": 45730,
  "Host": 28015,
  "Hot": 30210,
  "House": 29016,
  "How": 2020,
  "However": 4460,
  "Hs": 43460,
  "Http": 42743,
  "Hub": 24746,
  "Hum": 23420,
  "Human": 14917,
  "Humans": 33349,
  "Hung": 29204,
  "Hungarian": 44815,
  "Hungary": 47087,
  "Hur": 46031,
  "Hy": 19700,
  "Hyd": 24015,
  "Hyp": 34035,
  "Hyper": 31913,
  "Hz": 12465,
  "I": 57,
  "IA": 7854,
  "IAL": 19322,
  "IAN": 43700,
  "IB": 15894,
  "IC": 3020,
  "ICA": 41653,
  "ICAL": 21673,
  "ICE": 15799,
  "ICEF": 26770,
  "ICENSE": 20394,
  "ICES": 32743,
  "ICH": 41003,
  "ICK": 27163,
  "ICS": 23608,
  "ICT": 22519,
  "ICs": 47108,
  "ID": 2238,
  "IDA": 42717,
  "IDD": 43114,
  "IDE": 24662,
  "IDS": 8465,
  "IDs": 25338,
  "IE": 24686,
  "IENT": 36666,
  "IES": 20813,
  "IF": 8107,
  "IFE": 38165,
  "IFI": 41654,
  "IFIC": 35419,
  "IFT": 42722,
  "IG": 5819,
  "IGH": 28100,
  "IGHT": 20128,
  "IGN": 24537,
  "IH": 17673,
  "II": 2464,
  "III": 6977,
  "IK": 31639,
  "IL": 4192,
  "ILD": 31076,
  "ILE": 31815,
  "ILITY": 23398,
  "ILL": 19708,
  "ILY": 47319,
  "IM": 5974,
  "IMAGE": 40488,
  "IMIT": 27925,
  "IN": 2113,
  "INA": 38415,
  "IND": 14300,
  "INDEX": 48514,
  "INE": 12770,
  "INFO": 23765,
  "ING": 4728,
  "INGS": 27727,
  "INGTON": 45679,
  "INK": 27889,
  "INPUT": 44639,
  "INS": 24082,
  "INSERT": 42753,
  "INST": 39637,
  "INT": 14939,
  "INTER": 26396,
  "IO": 8772,
  "ION": 4171,
  "IONAL": 27318,
  "IONS": 13675,
  "IOS": 19051,
  "IP": 6188,
  "IPE": 33592,
  "IPS": 43314,
  "IR": 5810,
  "IRE": 45477,
  "IRED": 46737,
  "IRST": 35931,
  "IS": 2721,
  "ISA": 27541,
  "ISBN": 42097,
  "ISC": 27584,
  "ISE": 21247,
  "ISH": 24437,
  "ISING": 47218,
  "ISM": 36616,
  "ISO": 35308,
  "ISPR": 28706,
  "ISS": 25317,
  "IST": 9814,
  "ISTORY": 39184,
  "IT": 2901,
  "ITE": 20451,
  "ITER": 40412,
  "ITES": 31612,
  "ITH": 36211,
  "ITIES": 45787,
  "ITION": 35031,
  "ITS": 29238,
  "ITT": 46465,
  "ITY": 12688,
  "IU": 31654,
  "IUCN": 45371,
  "IV": 3277,
  "IVE": 16929,
  "IX": 14213,
  "IZ": 25630,
  "Ice": 41464,
  "Icon": 32695,
  "Id": 7464,
  "Ide": 28412,
  "Ideally": 47434,
  "Ident": 15263,
  "Identifier": 38367,
  "Identify": 35553,
  "Identifying": 41704,
  "Identity": 40863,
  "Ids": 43477,
  "Idx": 46992,
  "If": 1937,
  "Ig": 44311,
  "Ign": 39886,
  "Il": 39393,
  "Ill": 26427,
  "Illust": 39392,
  "Im": 2777,
  "Image": 9268,
  "Images": 26311,
  "Imagine": 4792,
  "Immun": 44683,
  "Imp": 22326,
  "Impact": 31714,
  "Imple": 19396,
  "Implement": 43077,
  "Implemented": 21668,
  "Import": 18754,
  "Importance": 44782,
  "Important": 34238,
  "Impro": 22531,
  "Improving": 43620,
  "In": 788,
  "Inc": 22318,
  "Incorpor": 30816,
  "Incorporating": 36878,
  "Incre": 19875,
  "Increased": 38352,
  "Increasing": 36238,
  "Ind": 5080,
  "Indeed": 23352,
  "Index": 13063,
  "India": 21935,
  "Indian": 24871,
  "Indigenous": 29638,
  "Individual": 23920,
  "Individuals": 35583,
  "Indones": 48013,
  "Industrial": 40298,
  "Inf": 9026,
  "Inflamm": 47473,
  "Info": 12054,
  "Information": 19256,
  "Ing": 34502,
  "Ingredients": 45394,
  "Init": 16412,
  "Initial": 25005,
  "Initially": 37627,
  "Innov": 40188,
  "Input": 10219,
  "Ins": 20181,
  "Insert": 34657,
  "Inside": 33608,
  "Insp": 30848,
  "Inspired": 36168,
  "Inst": 6744,
  "Install": 38126,
  "Instance": 19599,
  "Instead": 18640,
  "Institute": 48503,
  "Institutions": 24799,
  "Instruction": 25464,
  "Instructions": 37412,
  "Int": 4038,
  "Integ": 13154,
  "Integer": 17497,
  "IntegerField": 30391,
  "Inter": 8235,
  "Interest": 19340,
  "Interesting": 48154,
  "Interestingly": 30330,
  "Interface": 21079,
  "InterfaceSelection": 36902,
  "Interfaces": 35272,
  "Intern": 13748,
  "Internal": 37873,
  "International": 19085,
  "Internet": 25636,
  "Interval": 46993,
  "Intf": 48518,
  "Intrigued": 43891,
  "Introdu": 30649,
  "Introduction": 7479,
  "Inv": 27017,
  "Invalid": 21282,
  "Invest": 28765,
  "IoT": 39709,
  "Ip": 42755,
  "Ir": 31302,
  "Iran": 39349,
  "Irish": 38036,
  "Iron": 29631,
  "Is": 4182,
  "Isa": 32195,
  "Isaiah": 48527,
  "Islam": 24969,
  "Islamic": 35398,
  "Israel": 26098,
  "Iss": 30011,
  "Issue": 42773,
  "It": 1589,
  "Italian": 39455,
  "Italy": 46831,
  "Item": 12659,
  "Items": 37807,
  "Iter": 28233,
  "Its": 22695,
  "J": 58,
  "JC": 44703,
  "JD": 48028,
  "JECT": 24749,
  "JO": 41363,
  "JS": 40770,
  "JSON": 27936,
  "JV": 37550,
  "Jac": 28931,
  "Jack": 32160,
  "Jackson": 45340,
  "Jacob": 45729,
  "Jam": 36950,
  "James": 20822,
  "Jamie": 47942,
  "Jan": 14247,
  "Jane": 44611,
  "January": 19306,
  "Japan": 19693,
  "Japanese": 27140,
  "Java": 39570,
  "Je": 46719,
  "Jean": 40347,
  "Jeff": 35924,
  "Jer": 35190,
  "Jesus": 23604,
  "Jew": 18349,
  "Jewish": 23505,
  "Jews": 44762,
  "Jim": 39083,
  "Jo": 36864,
  "Job": 25631,
  "Joh": 48699,
  "John": 9682,
  "Johnson": 34834,
  "Join": 20255,
  "Joint": 38145,
  "Jon": 38976,
  "Jones": 34927,
  "Joseph": 29504,
  "Josh": 48290,
  "Journal": 22486,
  "Json": 43714,
  "Ju": 15381,
  "Jud": 32257,
  "Jul": 28813,
  "July": 17393,
  "Jun": 33399,
  "June": 16218,
  "Just": 8760,
  "K": 59,
  "KA": 39426,
  "KB": 37166,
  "KD": 30393,
  "KE": 9620,
  "KEN": 29992,
  "KEY": 13797,
  "KG": 46123,
  "KK": 45572,
  "KN": 39834,
  "KS": 19088,
  "Ka": 44929,
  "Ke": 10011,
  "Keep": 15939,
  "Keeping": 31269,
  "Ken": 41859,
  "Kenn": 47965,
  "Key": 5579,
  "KeyNot": 47339,
  "Keys": 35911,
  "Keywords": 28866,
  "Kh": 38324,
  "Kid": 46550,
  "Kids": 27517,
  "Kim": 41543,
  "Kind": 36405,
  "King": 19787,
  "Kit": 31347,
  "Kn": 36938,
  "Know": 14841,
  "Knowing": 32337,
  "Knowledge": 35761,
  "Known": 40845,
  "L": 60,
  "LA": 5963,
  "LAB": 26246,
  "LAG": 48208,
  "LAGS": 28152,
  "LAIM": 43317,
  "LAN": 28649,
  "LC": 14837,
  "LD": 16284,
  "LE": 4796,
  "LED": 28155,
  "LEFT": 38125,
  "LEG": 35960,
  "LEGATO": 43934,
  "LENGTH": 48824,
  "LES": 32972,
  "LET": 47414,
  "LEVEL": 47773,
  "LEX": 35256,
  "LG": 37810,
  "LGBT": 48528,
  "LI": 24288,
  "LIB": 48457,
  "LICENSE": 25138,
  "LIED": 44468,
  "LIN": 43478,
  "LINE": 22056,
  "LIST": 31859,
  "LL": 16421,
  "LM": 34519,
  "LO": 6426,
  "LOAD": 36038,
  "LOC": 21519,
  "LOCK": 33835,
  "LOG": 16479,
  "LOGGER": 47409,
  "LOGY": 39162,
  "LOW": 23557,
  "LP": 16611,
  "LR": 19912,
  "LS": 12041,
  "LT": 30407,
  "LU": 23441,
  "LV": 32005,
  "LY": 18899,
  "La": 15319,
  "Lab": 11024,
  "Label": 17213,
  "Labels": 44779,
  "Lack": 37630,
  "Lake": 39149,
  "Land": 25423,
  "Language": 21909,
  "Large": 28596,
  "Last": 7879,
  "Lastly": 15825,
  "Lat": 21824,
  "Late": 35656,
  "Later": 24790,
  "Latest": 40322,
  "Latin": 29249,
  "Law": 24377,
  "Lay": 11200,
  "Layer": 22564,
  "Layout": 16340,
  "Le": 7026,
  "Lead": 21371,
  "Leaf": 47841,
  "Lean": 41815,
  "Lear": 7831,
  "Learn": 11340,
  "Learning": 14433,
  "Leave": 35720,
  "Lect": 46959,
  "Led": 48456,
  "Lee": 31479,
  "Left": 26839,
  "Leg": 19794,
  "Legal": 40752,
  "Len": 29535,
  "Length": 22529,
  "Leon": 45472,
  "Les": 39571,
  "Less": 24910,
  "Lesson": 9589,
  "Let": 4239,
  "Letter": 39314,
  "Lev": 29807,
  "Level": 15363,
  "Lew": 38909,
  "Lewis": 45000,
  "Lex": 44190,
  "Li": 26722,
  "Lib": 22172,
  "Library": 31232,
  "Lic": 48738,
  "License": 20981,
  "Lie": 48761,
  "Lif": 49147,
  "Life": 11780,
  "Light": 21553,
  "Like": 10383,
  "Likewise": 44171,
  "Lily": 43490,
  "Lim": 21324,
  "Limit": 38896,
  "Lin": 28062,
  "Lincoln": 42470,
  "Line": 11907,
  "Linear": 22044,
  "Lines": 42835,
  "Link": 18481,
  "Links": 37122,
  "Linux": 37656,
  "List": 6106,
  "Listen": 31979,
  "Lit": 40688,
  "Liter": 28960,
  "Lith": 42774,
  "Little": 24401,
  "Live": 38186,
  "Living": 28293,
  "Lo": 37601,
  "Load": 14326,
  "Loader": 25626,
  "Loading": 45958,
  "Loc": 33151,
  "Local": 19542,
  "Located": 37966,
  "Location": 19688,
  "Lock": 35578,
  "Log": 9640,
  "Logger": 19067,
  "Login": 42058,
  "London": 21253,
  "Long": 15088,
  "Look": 17143,
  "Looking": 20552,
  "Loop": 44449,
  "Lord": 31438,
  "Los": 46551,
  "Loss": 24609,
  "Lou": 28559,
  "Louis": 35358,
  "Love": 30200,
  "Low": 19229,
  "Lower": 32556,
  "Ls": 47006,
  "Luc": 35202,
  "Luck": 44939,
  "Luckily": 48737,
  "Luke": 32267,
  "Ly": 33786,
  "M": 61,
  "MA": 7227,
  "MAC": 46669,
  "MAIN": 40288,
  "MAN": 27214,
  "MAP": 21814,
  "MAR": 32161,
  "MARY": 41465,
  "MAS": 48329,
  "MAT": 40560,
  "MAX": 22298,
  "MB": 20107,
  "MC": 12079,
  "MD": 9815,
  "MDR": 47684,
  "ME": 3945,
  "MED": 34277,
  "MEM": 46178,
  "MENT": 20865,
  "MER": 48987,
  "MES": 26826,
  "MET": 25675,
  "MEs": 44369,
  "MH": 45497,
  "MHz": 47643,
  "MI": 11155,
  "MIN": 23317,
  "MIT": 28845,
  "ML": 6444,
  "MM": 11362,
  "MN": 44434,
  "MO": 12850,
  "MOD": 15956,
  "MODE": 38143,
  "MODEL": 30316,
  "MON": 42893,
  "MP": 7015,
  "MPs": 48946,
  "MR": 14618,
  "MRI": 24023,
  "MS": 5247,
  "MSE": 47895,
  "MSG": 43434,
  "MT": 13574,
  "MW": 36917,
  "MY": 35335,
  "Ma": 26476,
  "Mac": 19146,
  "Mach": 48623,
  "Machine": 29968,
  "Mad": 24405,
  "Made": 42532,
  "Madison": 42840,
  "Mag": 33648,
  "Magic": 41229,
  "Magn": 34017,
  "Mah": 30995,
  "Mail": 47665,
  "Main": 13795,
  "MainWindow": 42940,
  "Maintaining": 42312,
  "Major": 26076,
  "Make": 12847,
  "Making": 19671,
  "Mal": 18853,
  "Male": 40716,
  "Man": 7764,
  "Management": 23737,
  "ManagementPlaneProtection": 36744,
  "Manager": 18860,
  "Managing": 35649,
  "Mand": 47260,
  "Manufact": 44017,
  "Many": 5315,
  "Map": 15521,
  "Mapper": 48269,
  "Mapping": 35705,
  "Mar": 12186,
  "Marc": 37303,
  "March": 16242,
  "Marg": 32316,
  "Maria": 41228,
  "Marie": 43246,
  "Marine": 42925,
  "Mark": 14525,
  "Market": 42888,
  "Mars": 38861,
  "Marsh": 46943,
  "Mart": 20471,
  "Martin": 31079,
  "Marx": 44447,
  "Mary": 25653,
  "Mas": 40715,
  "Mask": 39320,
  "Mass": 23742,
  "Master": 23534,
  "Mat": 11604,
  "Match": 32827,
  "Material": 34840,
  "Materials": 30025,
  "Math": 27871,
  "Matrix": 26128,
  "Matt": 37247,
  "Matthew": 27967,
  "Max": 12580,
  "Maximum": 38350,
  "May": 9389,
  "Maya": 49137,
  "Maybe": 26314,
  "Mc": 16294,
  "Me": 6407,
  "Mean": 12645,
  "Meaning": 42648,
  "Means": 39734,
  "Meanwhile": 15797,
  "Measure": 29945,
  "Measuring": 44642,
  "Med": 7266,
  "Media": 27247,
  "Medic": 45791,
  "Medical": 23104,
  "Medicine": 42263,
  "Meet": 26868,
  "Mel": 26000,
  "Mem": 15430,
  "Member": 29214,
  "Members": 33367,
  "Memory": 26741,
  "Men": 17260,
  "Mental": 31251,
  "Menu": 29293,
  "Mer": 31180,
  "Mes": 45642,
  "Mesh": 44765,
  "Mess": 38371,
  "Message": 13822,
  "MessageBox": 44994,
  "Met": 12582,
  "Meta": 21497,
  "MetaInfo": 43476,
  "MetaInfoClass": 43858,
  "Metadata": 29026,
  "Method": 15813,
  "Methods": 31983,
  "Metric": 45296,
  "Mex": 26863,
  "Mexico": 37128,
  "Mi": 42300,
  "Mic": 31447,
  "Mich": 22252,
  "Michael": 27647,
  "Michel": 46586,
  "Micro": 18058,
  "Microsoft": 32588,
  "Mid": 33416,
  "Middle": 24047,
  "Middleware": 48109,
  "Mig": 49038,
  "Migration": 31524,
  "Mil": 40612,
  "Military": 44592,
  "Mill": 27052,
  "Miller": 41568,
  "Min": 12795,
  "Mind": 25124,
  "Mindfulness": 48433,
  "Minimum": 39842,
  "Mis": 45711,
  "Miss": 21361,
  "Missing": 34414,
  "Mission": 48860,
  "Mit": 37631,
  "Mix": 21090,
  "Mixin": 26752,
  "Mo": 26212,
  "Mobile": 37129,
  "Mock": 22327,
  "Mod": 4828,
  "Mode": 20347,
  "Model": 7583,
  "Modern": 17556,
  "Module": 14516,
  "Molecular": 48930,
  "Mom": 41432,
  "Mon": 11278,
  "Monday": 32210,
  "Money": 39752,
  "Monitor": 36477,
  "Monitoring": 41155,
  "Mont": 31172,
  "Month": 40036,
  "Months": 47429,
  "Moon": 39074,
  "Mor": 24820,
  "More": 5507,
  "Moreover": 11725,
  "Mos": 41347,
  "Most": 6101,
  "Mot": 37330,
  "Mother": 32916,
  "Motor": 41590,
  "Mount": 34800,
  "Move": 27865,
  "Moving": 33520,
  "Mr": 14086,
  "Mrs": 29846,
  "Ms": 16653,
  "Msg": 43841,
  "Mu": 35113,
  "Much": 21811,
  "Mul": 48328,
  "Mult": 13896,
  "Multi": 25673,
  "Multiple": 28421,
  "Mur": 30796,
  "Mus": 13758,
  "Music": 26446,
  "Muslim": 26791,
  "Muslims": 46176,
  "Must": 40430,
  "My": 5965,
  "Myth": 30891,
  "N": 62,
  "NA": 1933,
  "NAL": 15451,
  "NAME": 6167,
  "NAMES": 48873,
  "NAP": 37553,
  "NAS": 34497,
  "NASA": 18365,
  "NAT": 25430,
  "NB": 35601,
  "NC": 18335,
  "ND": 24915,
  "NE": 16472,
  "NER": 39519,
  "NESS": 31204,
  "NET": 18815,
  "NEW": 36648,
  "NF": 23819,
  "NG": 18791,
  "NH": 28378,
  "NI": 32819,
  "NIH": 39696,
  "NING": 21731,
  "NL": 32211,
  "NM": 36406,
  "NN": 19668,
  "NO": 13465,
  "NOAA": 43292,
  "NOT": 18083,
  "NOTE": 30392,
  "NOW": 36375,
  "NP": 26282,
  "NR": 21563,
  "NS": 8965,
  "NSA": 46905,
  "NSF": 48257,
  "NT": 21364,
  "NULL": 35297,
  "NUM": 25398,
  "NUMBER": 47689,
  "NV": 35859,
  "NW": 40739,
  "NY": 30513,
  "Na": 26062,
  "Name": 5820,
  "Named": 41789,
  "Names": 24987,
  "Nan": 39252,
  "Narr": 47564,
  "National": 11777,
  "Native": 26692,
  "Natural": 19815,
  "Nature": 26753,
  "Nav": 26330,
  "Navigating": 37852,
  "Ne": 9042,
  "Near": 41092,
  "Nearly": 32462,
  "Need": 26524,
  "Neg": 27248,
  "Negative": 42529,
  "Neigh": 45259,
  "Neil": 47917,
  "Neill": 39831,
  "Neither": 42279,
  "Net": 9622,
  "Network": 21974,
  "Neuro": 30420,
  "Never": 19525,
  "Nevertheless": 29588,
  "New": 5529,
  "News": 21037,
  "Newton": 47379,
  "Next": 8693,
  "Ni": 41980,
  "Nic": 37277,
  "Nick": 48903,
  "Night": 46081,
  "Nit": 42453,
  "No": 5230,
  "Nob": 34776,
  "Nobody": 46844,
  "Node": 12176,
  "Nodes": 41659,
  "Noise": 39595,
  "Non": 14356,
  "None": 3482,
  "Nonetheless": 44911,
  "Nor": 27737,
  "Norm": 12568,
  "Normal": 20828,
  "Normally": 42726,
  "North": 18973,
  "Northern": 38416,
  "Not": 5884,
  "NotFound": 29791,
  "NotFoundError": 43360,
  "Note": 8928,
  "Notes": 26622,
  "Nothing": 32842,
  "Notice": 33142,
  "Nov": 31860,
  "November": 19861,
  "Now": 2696,
  "Nowadays": 32281,
  "Ns": 28693,
  "Nuclear": 42018,
  "Num": 14131,
  "Number": 13014,
  "Numbers": 39006,
  "Numerous": 38199,
  "Nutrition": 35677,
  "O": 63,
  "OA": 28093,
  "OB": 24554,
  "OC": 7524,
  "OCK": 31121,
  "OCs": 28745,
  "OD": 5409,
  "ODE": 37348,
  "ODO": 14798,
  "OF": 26138,
  "OFF": 34342,
  "OG": 33137,
  "OH": 18692,
  "OK": 13663,
  "OL": 7113,
  "OLD": 23561,
  "OM": 9232,
  "ON": 2154,
  "OND": 35906,
  "ONE": 19832,
  "ONG": 27868,
  "ONS": 43862,
  "ONT": 32598,
  "OO": 30477,
  "OP": 7627,
  "OPT": 36454,
  "OR": 2460,
  "ORD": 10030,
  "ORDER": 46144,
  "ORE": 16135,
  "ORK": 25089,
  "ORM": 32014,
  "ORS": 20808,
  "ORT": 13110,
  "ORY": 20265,
  "OS": 4531,
  "OSE": 35574,
  "OSS": 33772,
  "OT": 4515,
  "OTH": 48234,
  "OTHER": 48558,
  "OTO": 44505,
  "OUT": 19546,
  "OUTPUT": 44724,
  "OVA": 41995,
  "OW": 8904,
  "OWN": 22837,
  "Ob": 7181,
  "Obesity": 46117,
  "Obj": 30207,
  "Object": 9453,
  "Objective": 32677,
  "Objects": 42395,
  "Obs": 23143,
  "Obviously": 36269,
  "Occ": 25412,
  "Occup": 42701,
  "Ocean": 43370,
  "Oct": 14403,
  "October": 18027,
  "Of": 6228,
  "Off": 16654,
  "Offic": 31341,
  "Office": 37963,
  "Official": 46631,
  "Offset": 39944,
  "Often": 24364,
  "Oh": 16912,
  "Oil": 39367,
  "Ok": 24487,
  "Okay": 39122,
  "Ol": 40771,
  "Old": 17222,
  "Older": 48108,
  "Om": 35452,
  "Omega": 45605,
  "On": 3280,
  "Once": 6403,
  "One": 2705,
  "Online": 21309,
  "Only": 15017,
  "Op": 20091,
  "Open": 14297,
  "Oper": 15015,
  "Operating": 48840,
  "Operation": 28077,
  "Operations": 43895,
  "Operator": 39787,
  "Opp": 35425,
  "Ops": 40393,
  "Opt": 13928,
  "Optim": 34363,
  "Option": 30129,
  "Optional": 23260,
  "Options": 23084,
  "Or": 6882,
  "Oral": 40519,
  "Order": 22977,
  "Organ": 17373,
  "Organic": 37862,
  "Organization": 48382,
  "Ori": 35250,
  "Orig": 12966,
  "Origin": 27313,
  "Original": 29764,
  "Originally": 27254,
  "Orth": 39982,
  "Os": 11062,
  "Oste": 46217,
  "Other": 6937,
  "Others": 37574,
  "Our": 5425,
  "Out": 9142,
  "Output": 17597,
  "Outside": 45221,
  "Over": 7110,
  "Overall": 20832,
  "Overview": 38379,
  "Own": 35175,
  "Ox": 23267,
  "Oxford": 34553,
  "P": 64,
  "PA": 4442,
  "PAA": 41551,
  "PAR": 23065,
  "PAS": 19368,
  "PASSWORD": 20680,
  "PAT": 44913,
  "PATH": 16586,
  "PC": 11674,
  "PCR": 31384,
  "PD": 9556,
  "PDATE": 32188,
  "PDF": 12283,
  "PE": 8198,
  "PEG": 29751,
  "PER": 18299,
  "PES": 32747,
  "PET": 43029,
  "PF": 25424,
  "PG": 22161,
  "PH": 16386,
  "PI": 19427,
  "PIPE": 39739,
  "PK": 42323,
  "PL": 8677,
  "PLA": 31211,
  "PLAY": 42575,
  "PLE": 46720,
  "PM": 15916,
  "PN": 15510,
  "PO": 10437,
  "POL": 42579,
  "PON": 41442,
  "PORT": 21312,
  "POS": 22259,
  "POSE": 37975,
  "POST": 17570,
  "PP": 14142,
  "PR": 6886,
  "PRE": 25513,
  "PREFIX": 47754,
  "PRESS": 32239,
  "PRI": 48700,
  "PRO": 13535,
  "PROJECT": 47940,
  "PS": 4545,
  "PSC": 35832,
  "PSS": 42697,
  "PT": 9848,
  "PTSD": 37278,
  "PU": 32736,
  "PUT": 21348,
  "PV": 11793,
  "PY": 21091,
  "Pa": 28694,
  "Pacific": 27778,
  "Pack": 22312,
  "Package": 44106,
  "Pad": 39150,
  "Page": 15886,
  "Pages": 39632,
  "Pain": 35176,
  "Pair": 42153,
  "Pakistan": 43681,
  "Pal": 20529,
  "Pan": 23491,
  "Panel": 37529,
  "Pap": 46381,
  "Paper": 31717,
  "Par": 7309,
  "Parallel": 45349,
  "Param": 12412,
  "Parameter": 21018,
  "Parameters": 26962,
  "Params": 30805,
  "Parent": 17806,
  "Parents": 24971,
  "Paris": 38634,
  "Park": 34036,
  "Pars": 46328,
  "Parse": 39538,
  "Parser": 13157,
  "Part": 8070,
  "Particip": 26501,
  "Participants": 39423,
  "Pass": 17911,
  "Password": 32611,
  "Past": 37754,
  "Pat": 12215,
  "Path": 9644,
  "Patient": 37654,
  "Patients": 27549,
  "Pattern": 41456,
  "Paul": 21402,
  "Pay": 25017,
  "Pe": 7166,
  "Peace": 43160,
  "Peak": 41512,
  "Pear": 46532,
  "Peer": 19220,
  "PeerClass": 39121,
  "PeerV": 41255,
  "Pen": 35750,
  "Penn": 47212,
  "People": 9119,
  "Per": 7669,
  "Percent": 37653,
  "Performance": 43614,
  "Perhaps": 16801,
  "Period": 29152,
  "Perm": 23457,
  "Permission": 45508,
  "Permissions": 39237,
  "Pers": 25165,
  "Person": 26985,
  "Personal": 26341,
  "Pet": 30611,
  "Peter": 29300,
  "Ph": 4586,
  "PhD": 44290,
  "Phase": 33238,
  "Phil": 27834,
  "Philos": 42569,
  "Phone": 17739,
  "Phot": 18954,
  "Photo": 14666,
  "Photos": 33580,
  "Phy": 41277,
  "Phys": 28457,
  "Physical": 17832,
  "Physics": 46816,
  "Pi": 41967,
  "Pick": 31413,
  "Pict": 45299,
  "Picture": 34296,
  "Pin": 41386,
  "Pip": 42914,
  "Pix": 42578,
  "Pl": 5308,
  "Place": 21781,
  "Plan": 23296,
  "Plane": 22457,
  "PlaneProtection": 36743,
  "Planning": 41938,
  "Plant": 23556,
  "Plants": 34246,
  "Plastic": 43882,
  "Plate": 40794,
  "Play": 20522,
  "Player": 32901,
  "Playing": 44343,
  "Please": 10180,
  "Plot": 29701,
  "Plugin": 36300,
  "Plus": 29217,
  "Po": 23774,
  "Point": 10572,
  "Points": 30376,
  "Pol": 14783,
  "Policy": 20493,
  "Political": 33230,
  "Poll": 42073,
  "Poly": 24886,
  "Pont": 47348,
  "Pool": 24152,
  "Poor": 35657,
  "Pop": 17840,
  "Popen": 48093,
  "Popular": 39144,
  "Population": 33107,
  "Port": 16870,
  "Pos": 17865,
  "Position": 24821,
  "Positive": 31176,
  "Possible": 39697,
  "Post": 10360,
  "Posted": 19411,
  "Pot": 23531,
  "Potential": 41020,
  "Power": 20256,
  "Pr": 9706,
  "Pract": 45083,
  "Practice": 29993,
  "Pre": 8031,
  "Prec": 34018,
  "Pred": 23009,
  "Predict": 44509,
  "Pref": 29039,
  "Prefix": 33108,
  "Pregn": 44930,
  "Prep": 28881,
  "Prepar": 28537,
  "Preparation": 45047,
  "Prepare": 37143,
  "Preparing": 42196,
  "Preprocess": 36658,
  "Pres": 13208,
  "Present": 22613,
  "Presentation": 42942,
  "President": 20889,
  "Press": 18177,
  "Pressure": 45410,
  "Prevent": 48504,
  "Preventing": 41501,
  "Prevention": 35921,
  "Previous": 26966,
  "Previously": 47958,
  "Price": 27148,
  "Prim": 18739,
  "Primary": 26101,
  "Prime": 46012,
  "Primitive": 43950,
  "Prin": 41080,
  "Princ": 29468,
  "Prince": 44205,
  "Print": 20230,
  "Prior": 23885,
  "Priv": 46819,
  "Private": 33160,
  "Pro": 2954,
  "Prob": 27007,
  "Probably": 45177,
  "Problem": 33348,
  "Problems": 41909,
  "Process": 15536,
  "Processing": 37973,
  "Processor": 46897,
  "Produ": 18082,
  "Product": 23287,
  "Production": 42975,
  "Prof": 13582,
  "Professional": 41320,
  "Professor": 19516,
  "Profile": 30750,
  "Prog": 26660,
  "Program": 20475,
  "Programming": 31809,
  "Progress": 37359,
  "Proj": 45751,
  "Project": 14892,
  "Prom": 24785,
  "Prop": 27355,
  "Proper": 33073,
  "Properties": 34533,
  "Property": 20317,
  "Pros": 48464,
  "Prot": 12820,
  "Protect": 47538,
  "Protecting": 46820,
  "Protection": 29082,
  "Protein": 39043,
  "Protocol": 24139,
  "Prov": 15855,
  "Provide": 37264,
  "Provider": 40815,
  "Providing": 46074,
  "Proxy": 38087,
  "Ps": 10566,
  "Psych": 23686,
  "Pu": 39777,
  "Pub": 9335,
  "PubMed": 16169,
  "PubMedGoogle": 31202,
  "Public": 13038,
  "Publication": 25241,
  "Published": 18728,
  "Publisher": 34172,
  "Pur": 26578,
  "Purpose": 44860,
  "Push": 37910,
  "Put": 22030,
  "Putting": 43273,
  "Py": 9367,
  "Python": 23297,
  "Q": 65,
  "QA": 36315,
  "QL": 9055,
  "QR": 43323,
  "QU": 11745,
  "QUE": 41074,
  "Qs": 46243,
  "Qt": 16563,
  "QtCore": 35371,
  "Qu": 6317,
  "Qual": 48346,
  "Quality": 33800,
  "Quant": 24696,
  "Quantum": 48021,
  "Que": 19623,
  "Queen": 36926,
  "Query": 22731,
  "Quest": 44156,
  "Question": 17872,
  "Questions": 29247,
  "Queue": 34250,
  "Quick": 36453,
  "R": 66,
  "RA": 7055,
  "RAIN": 29924,
  "RAM": 43621,
  "RAN": 13885,
  "RAW": 42634,
  "RAY": 35811,
  "RB": 45780,
  "RC": 8157,
  "RCA": 34500,
  "RD": 36705,
  "RE": 3256,
  "READ": 23646,
  "REAM": 48815,
  "REC": 44052,
  "RECT": 25623,
  "RED": 32961,
  "REE": 17429,
  "REEN": 37490,
  "REF": 44271,
  "REG": 30113,
  "REL": 32312,
  "REM": 38511,
  "REQU": 30804,
  "REQUEST": 44999,
  "RES": 17348,
  "RET": 27669,
  "RF": 28211,
  "RG": 45249,
  "RGB": 34845,
  "RH": 42177,
  "RI": 5135,
  "RIBUT": 33335,
  "RIC": 45887,
  "RIG": 22929,
  "RIGHT": 27282,
  "RIPT": 27915,
  "RL": 9483,
  "RM": 43399,
  "RN": 15986,
  "RNA": 12520,
  "RNAs": 24543,
  "RO": 3911,
  "ROL": 48816,
  "ROM": 12988,
  "ROOT": 29367,
  "ROP": 43822,
  "ROS": 48426,
  "ROW": 34559,
  "RP": 29482,
  "RR": 31162,
  "RS": 12086,
  "RT": 16895,
  "RU": 46634,
  "RUN": 46417,
  "RY": 24625,
  "Ra": 16171,
  "Rab": 34750,
  "Race": 45341,
  "Rad": 17595,
  "Radio": 36983,
  "Rain": 36951,
  "Raises": 22616,
  "Ram": 41842,
  "Random": 25838,
  "Range": 21470,
  "Rank": 36057,
  "Rap": 31820,
  "Rapid": 47236,
  "Rat": 42756,
  "Rate": 28221,
  "Rather": 31971,
  "Raw": 32775,
  "Ray": 30300,
  "Re": 3733,
  "ReLU": 32469,
  "Read": 6340,
  "Reader": 29315,
  "Reading": 22345,
  "Ready": 37517,
  "Real": 20423,
  "Reals": 43078,
  "Reason": 43213,
  "Rec": 10845,
  "Received": 43880,
  "Recent": 12576,
  "Recently": 23595,
  "Recipe": 23097,
  "RecipeSteps": 27818,
  "Recogn": 28070,
  "Recognizing": 44430,
  "Recomm": 27378,
  "Recommend": 48617,
  "Recommended": 36228,
  "Record": 24664,
  "Rect": 28460,
  "Red": 12869,
  "Redu": 25307,
  "Reduce": 37457,
  "Reducing": 41457,
  "Ref": 7140,
  "Reference": 23682,
  "References": 25709,
  "Reflecting": 32471,
  "Reg": 7969,
  "Regarding": 39095,
  "Regardless": 30030,
  "Region": 38279,
  "Register": 29793,
  "Regression": 39183,
  "Regular": 26319,
  "Rel": 9641,
  "Related": 17312,
  "Relations": 38569,
  "Rele": 29919,
  "Release": 43998,
  "Religion": 42526,
  "Religious": 45029,
  "Rem": 7224,
  "Remember": 9692,
  "Remote": 46068,
  "Remove": 27137,
  "Ren": 27985,
  "Rep": 9302,
  "Repeat": 48010,
  "Report": 23121,
  "Represent": 38932,
  "Republic": 37074,
  "Requ": 10438,
  "Request": 13519,
  "Required": 32835,
  "Res": 3461,
  "Research": 11380,
  "Researchers": 11493,
  "Reset": 44526,
  "Resource": 18000,
  "Resources": 31382,
  "Resp": 10598,
  "Respons": 43151,
  "Response": 12463,
  "Rest": 21892,
  "Result": 17564,
  "Results": 21464,
  "Ret": 9325,
  "Return": 14362,
  "Returning": 44995,
  "Returns": 25671,
  "Rev": 19440,
  "Review": 21465,
  "Reviewed": 47688,
  "Rh": 34082,
  "Rich": 20983,
  "Richard": 29604,
  "Right": 18757,
  "Ring": 48886,
  "Risk": 30478,
  "River": 46860,
  "Ro": 34095,
  "Road": 43045,
  "Rob": 20348,
  "Rober": 21722,
  "Robert": 25268,
  "Rock": 35668,
  "Rod": 41364,
  "Rog": 46533,
  "Role": 26703,
  "Rom": 34310,
  "Roman": 23510,
  "Romans": 45084,
  "Rome": 46292,
  "Room": 42122,
  "Root": 28851,
  "Ros": 42132,
  "Rose": 44124,
  "Ross": 48673,
  "Rot": 37204,
  "Round": 45414,
  "Rout": 31655,
  "Row": 28428,
  "Royal": 38708,
  "Rs": 28417,
  "Rub": 39887,
  "Rule": 27210,
  "Rules": 42976,
  "Run": 17249,
  "Runner": 42130,
  "Running": 33343,
  "Runtime": 37205,
  "Russ": 47349,
  "Russia": 37563,
  "Russian": 29935,
  "S": 67,
  "SA": 4988,
  "SAGE": 41601,
  "SAM": 47181,
  "SB": 31853,
  "SC": 8076,
  "SCH": 43999,
  "SCs": 42699,
  "SD": 7404,
  "SE": 6493,
  "SEC": 25874,
  "SECRET": 45620,
  "SELECT": 23428,
  "SER": 32432,
  "SERV": 41081,
  "SERVER": 44861,
  "SET": 23043,
  "SF": 18504,
  "SH": 12802,
  "SI": 9114,
  "SIG": 38092,
  "SIM": 39308,
  "SIZE": 21252,
  "SK": 32457,
  "SL": 10199,
  "SM": 14192,
  "SN": 15400,
  "SO": 12369,
  "SON": 13994,
  "SOURCE": 34861,
  "SP": 7149,
  "SQL": 15933,
  "SR": 13370,
  "SS": 6690,
  "SSL": 40939,
  "ST": 3127,
  "START": 36474,
  "STAT": 23438,
  "STATE": 37749,
  "STATUS": 34067,
  "STEM": 24879,
  "STEP": 43212,
  "STM": 26152,
  "STOP": 48124,
  "STOR": 33095,
  "STR": 17136,
  "STRING": 36075,
  "STRUCT": 47687,
  "SU": 15464,
  "SUM": 43922,
  "SV": 16286,
  "SW": 10806,
  "SWORD": 20015,
  "SY": 31110,
  "Sa": 38777,
  "Sad": 34278,
  "Sadly": 41758,
  "Safe": 34806,
  "Safety": 31575,
  "Sah": 21210,
  "Saharan": 22852,
  "Saint": 36467,
  "Sal": 20052,
  "Salt": 40324,
  "Sam": 22750,
  "Sample": 25379,
  "Samuel": 48568,
  "San": 21541,
  "Sand": 40983,
  "Sarah": 26676,
  "Sat": 23876,
  "Saturday": 42335,
  "Save": 23079,
  "Saving": 44028,
  "Saxon": 27349,
  "Say": 36218,
  "Sc": 6526,
  "Scal": 34197,
  "Scale": 27412,
  "Scan": 37931,
  "Scenario": 48892,
  "Scene": 48891,
  "Sch": 17291,
  "Sche": 30562,
  "Sched": 46418,
  "Schedule": 38385,
  "Schema": 26687,
  "Schol": 38226,
  "School": 17363,
  "Schools": 38182,
  "Sci": 41670,
  "Science": 15776,
  "Scient": 11579,
  "Scientific": 29654,
  "Scientists": 14026,
  "Scope": 41439,
  "Score": 32226,
  "Scot": 47038,
  "Scott": 33632,
  "Scre": 45888,
  "Screen": 36178,
  "Script": 22194,
  "Se": 4393,
  "Sea": 32135,
  "Search": 15251,
  "Season": 43975,
  "Sec": 20331,
  "Second": 12556,
  "Secondary": 40828,
  "Secondly": 31536,
  "Secret": 36294,
  "Section": 3522,
  "Security": 32746,
  "See": 7574,
  "Seed": 42961,
  "Seeing": 37001,
  "Seek": 49130,
  "Seg": 32217,
  "Sel": 38274,
  "Select": 14965,
  "Selected": 38065,
  "Selecting": 44256,
  "Selection": 24954,
  "Self": 21471,
  "Sem": 19346,
  "Semitic": 46257,
  "Semitism": 38414,
  "Sen": 27025,
  "Send": 29752,
  "Sensor": 46822,
  "Sent": 35658,
  "Sep": 27142,
  "Sept": 16811,
  "September": 18564,
  "Seq": 28204,
  "Sequ": 19788,
  "Sequence": 28721,
  "Sequential": 37437,
  "Ser": 31687,
  "Serial": 18162,
  "Serializer": 22970,
  "Series": 23136,
  "Serv": 36169,
  "Server": 22922,
  "Service": 18043,
  "Session": 21479,
  "Set": 7143,
  "Sets": 39815,
  "Setting": 27568,
  "Settings": 30192,
  "Setup": 47611,
  "Seven": 40357,
  "Several": 14117,
  "Severe": 47680,
  "Sex": 28569,
  "Sexual": 45904,
  "Sh": 4370,
  "Shape": 31266,
  "Share": 20511,
  "Sharing": 45274,
  "She": 8113,
  "Sheet": 40035,
  "Shell": 32959,
  "Sher": 47415,
  "Shift": 43786,
  "Short": 20355,
  "Should": 20646,
  "Show": 21175,
  "Si": 32139,
  "Side": 31310,
  "Sig": 36135,
  "Sigma": 48701,
  "Sign": 13219,
  "Signal": 38885,
  "Signs": 31287,
  "Sil": 23685,
  "Silver": 45994,
  "Sim": 8152,
  "Similar": 24355,
  "Similarly": 21038,
  "Simon": 45619,
  "Simple": 24893,
  "Simply": 36823,
  "Since": 7230,
  "Sing": 33217,
  "Single": 29708,
  "Sir": 29156,
  "Site": 31480,
  "Six": 30263,
  "Size": 12554,
  "Sk": 17140,
  "Skin": 35953,
  "Skip": 38351,
  "Sky": 45123,
  "Sl": 17423,
  "Sleep": 27455,
  "Slow": 41142,
  "Sm": 9207,
  "Small": 20910,
  "Smart": 27814,
  "Smith": 20674,
  "Smoking": 44759,
  "Sn": 24222,
  "Snow": 38763,
  "So": 2931,
  "Soci": 31938,
  "Social": 15210,
  "Socket": 46670,
  "Soft": 22777,
  "Software": 31188,
  "Soil": 34811,
  "Sol": 16339,
  "Solar": 25524,
  "Solid": 46939,
  "Solution": 37500,
  "Some": 4449,
  "Something": 35524,
  "Sometimes": 13866,
  "Son": 40131,
  "Soon": 33350,
  "Sorry": 37388,
  "Sort": 48762,
  "Sound": 34668,
  "Soup": 37871,
  "Source": 9227,
  "Sources": 29808,
  "South": 18102,
  "Southern": 37770,
  "Sov": 35535,
  "Soviet": 36746,
  "Sp": 8103,
  "Space": 18762,
  "Spain": 49028,
  "Spanish": 29536,
  "Spe": 15024,
  "Speaking": 32431,
  "Spec": 10281,
  "Special": 21841,
  "Species": 34225,
  "Specific": 31429,
  "Specifically": 46195,
  "Speech": 43713,
  "Speed": 33449,
  "Spin": 37214,
  "Spirit": 36107,
  "Split": 38251,
  "Sports": 46082,
  "Spring": 32155,
  "Squ": 30470,
  "St": 1393,
  "Stack": 28840,
  "Staff": 48036,
  "Stage": 29858,
  "Stan": 42715,
  "Stand": 17268,
  "Standard": 23013,
  "Star": 28616,
  "Start": 11117,
  "Starting": 26163,
  "Stat": 21547,
  "State": 10024,
  "Statement": 42767,
  "States": 33045,
  "Static": 46868,
  "Station": 42716,
  "Statistics": 35618,
  "Stats": 38685,
  "Status": 16060,
  "Stay": 28262,
  "Ste": 16949,
  "Stem": 48252,
  "Step": 3512,
  "Stephen": 43148,
  "Steps": 21831,
  "Still": 20824,
  "Sto": 46329,
  "Stock": 35380,
  "Stone": 41047,
  "Stop": 25725,
  "Storage": 31963,
  "Store": 29405,
  "Story": 34214,
  "Str": 15740,
  "Stra": 48513,
  "Strategy": 40130,
  "Stream": 23484,
  "Streng": 38041,
  "Stress": 32114,
  "String": 10492,
  "Strong": 37937,
  "Struct": 26584,
  "Structure": 37032,
  "Stud": 7232,
  "Student": 28329,
  "Students": 12037,
  "Studies": 21595,
  "Study": 21904,
  "Studying": 46270,
  "Sty": 25150,
  "Style": 28384,
  "Su": 7393,
  "Sub": 7871,
  "Subject": 26652,
  "Submitted": 45136,
  "Subscribe": 35791,
  "Subst": 40810,
  "Subthreshold": 38362,
  "Success": 26796,
  "Such": 17886,
  "Suddenly": 43977,
  "Sugar": 47007,
  "Suggest": 37106,
  "Sum": 13764,
  "Summary": 23530,
  "Summer": 34386,
  "Sun": 22791,
  "Sund": 36255,
  "Sunday": 39707,
  "Super": 22959,
  "Supp": 12233,
  "Supplement": 41667,
  "Support": 28605,
  "Suppose": 33279,
  "Sur": 14649,
  "Sure": 34355,
  "Surface": 33834,
  "Surv": 48668,
  "Sus": 38507,
  "Sustainable": 40717,
  "Sw": 14395,
  "Swed": 44840,
  "Sweet": 44914,
  "Switch": 44996,
  "Sy": 32378,
  "Sym": 12754,
  "Symbol": 28308,
  "Symptoms": 19524,
  "Syn": 29103,
  "System": 18403,
  "T": 68,
  "TA": 14106,
  "TABLE": 39188,
  "TAG": 34934,
  "TAR": 47864,
  "TB": 29626,
  "TC": 12373,
  "TCP": 48825,
  "TE": 16569,
  "TEM": 32140,
  "TEMPL": 48363,
  "TER": 8978,
  "TEST": 21700,
  "TEXT": 39486,
  "TF": 33030,
  "TH": 7444,
  "THE": 15964,
  "THER": 25581,
  "TI": 10068,
  "TIES": 20905,
  "TIM": 45048,
  "TIME": 24479,
  "TL": 27510,
  "TM": 25405,
  "TO": 10179,
  "TODO": 45342,
  "TOKEN": 36761,
  "TON": 28772,
  "TOP": 40592,
  "TP": 7148,
  "TPS": 33635,
  "TR": 10895,
  "TRACT": 40709,
  "TRAIN": 45264,
  "TS": 5497,
  "TSD": 14834,
  "TT": 18477,
  "TV": 27620,
  "TW": 45906,
  "TX": 41173,
  "TY": 11573,
  "TYPE": 18104,
  "TYPES": 44102,
  "Ta": 46783,
  "Tab": 30064,
  "Table": 8852,
  "Tag": 22955,
  "Tags": 35966,
  "Take": 12653,
  "Taking": 22021,
  "Talk": 27779,
  "Tam": 45142,
  "Target": 23149,
  "Task": 22188,
  "Tax": 41022,
  "Taylor": 42504,
  "Te": 6732,
  "TeX": 31706,
  "Teach": 41586,
  "Teacher": 32494,
  "Teachers": 29054,
  "Teaching": 25885,
  "Team": 33039,
  "Tech": 25169,
  "Techn": 21109,
  "Technical": 39629,
  "Technology": 25974,
  "Tel": 32511,
  "Tele": 30800,
  "Tell": 31530,
  "Tem": 24514,
  "Temperature": 38115,
  "Template": 29233,
  "Ten": 28134,
  "Tensor": 15944,
  "Ter": 25425,
  "Term": 21641,
  "Test": 6310,
  "TestCase": 15645,
  "Testing": 33213,
  "Tests": 25890,
  "Tex": 30574,
  "Texas": 39106,
  "Text": 8060,
  "TextField": 35664,
  "Th": 1082,
  "Thank": 19503,
  "Thanks": 16937,
  "That": 5195,
  "The": 504,
  "Their": 17440,
  "Then": 10039,
  "Ther": 35925,
  "There": 2122,
  "Therefore": 17308,
  "These": 3902,
  "They": 4948,
  "Things": 27475,
  "Think": 16817,
  "Thinking": 46481,
  "Third": 22961,
  "This": 1348,
  "Thomas": 23483,
  "Those": 14359,
  "Though": 12908,
  "Thread": 25280,
  "Three": 16705,
  "Through": 6891,
  "Throughout": 9314,
  "Thursday": 35845,
  "Thus": 14344,
  "Ti": 44862,
  "Tib": 47966,
  "Tick": 48931,
  "Tier": 49081,
  "Tim": 17170,
  "Time": 7487,
  "Timeout": 49050,
  "Times": 39866,
  "Timmy": 36572,
  "Tip": 26688,
  "Tips": 23879,
  "Title": 16491,
  "To": 2068,
  "Today": 7886,
  "Together": 27554,
  "Token": 20855,
  "Tom": 24960,
  "Too": 28523,
  "Tool": 27408,
  "Tools": 31448,
  "Top": 14777,
  "Topic": 29718,
  "Tor": 29264,
  "Torch": 37005,
  "Total": 17647,
  "Tow": 39816,
  "Tr": 20141,
  "Tra": 8509,
  "Trace": 44602,
  "Track": 35435,
  "Trade": 42870,
  "Traditional": 27634,
  "Traditionally": 36066,
  "Train": 28633,
  "Training": 27706,
  "Trans": 8241,
  "Transaction": 44090,
  "Transform": 31806,
  "Transition": 45853,
  "Transl": 47405,
  "Translation": 41928,
  "Transport": 34094,
  "Travel": 35962,
  "Tre": 39778,
  "Treat": 34760,
  "Treatment": 19316,
  "Tree": 18988,
  "Trees": 46059,
  "Tri": 34057,
  "True": 2787,
  "Trust": 44108,
  "Truth": 46375,
  "Try": 20011,
  "Ts": 24930,
  "Tube": 14474,
  "Tuesday": 35303,
  "Tuple": 32962,
  "Tur": 22590,
  "Turk": 43383,
  "Turn": 24202,
  "Turning": 46472,
  "Tw": 21476,
  "Twenty": 42772,
  "Two": 10345,
  "Ty": 35251,
  "Typ": 30317,
  "Type": 4820,
  "TypeError": 39994,
  "Types": 15804,
  "Typical": 46436,
  "Typically": 32488,
  "U": 69,
  "UAL": 38287,
  "UB": 18151,
  "UC": 15604,
  "UCT": 23648,
  "UD": 11911,
  "UDE": 47008,
  "UE": 16049,
  "UES": 33358,
  "UG": 15186,
  "UI": 17707,
  "UID": 27637,
  "UK": 21528,
  "UL": 6565,
  "ULAR": 32029,
  "ULD": 45471,
  "ULE": 38017,
  "ULL": 17869,
  "ULT": 13588,
  "UM": 8292,
  "UN": 5633,
  "UNC": 47197,
  "UNCT": 39332,
  "UND": 21277,
  "UNT": 23330,
  "UP": 11957,
  "UPDATE": 39210,
  "UR": 4805,
  "URCE": 26474,
  "URCES": 44319,
  "URE": 15672,
  "URES": 42606,
  "URI": 40991,
  "URL": 14492,
  "URN": 38544,
  "URR": 36304,
  "URRENT": 45940,
  "URS": 47840,
  "US": 4501,
  "USA": 24842,
  "USD": 40383,
  "USDA": 37729,
  "USE": 23134,
  "USER": 23824,
  "UST": 19200,
  "UT": 4628,
  "UTC": 35204,
  "UTE": 39026,
  "UTF": 39786,
  "UTH": 19320,
  "UTION": 42807,
  "UV": 19539,
  "UX": 35724,
  "Uk": 48904,
  "Ult": 20688,
  "Ultimately": 27704,
  "Un": 3706,
  "Unable": 43149,
  "Und": 37319,
  "Under": 7134,
  "Understand": 40287,
  "Understanding": 10415,
  "Unfortunately": 14875,
  "Union": 27360,
  "Unique": 43102,
  "Unit": 16047,
  "United": 19246,
  "Units": 45311,
  "Univers": 33262,
  "University": 17166,
  "Unknown": 33873,
  "Unless": 32685,
  "Unlike": 18093,
  "Until": 21535,
  "Up": 3038,
  "Update": 17704,
  "Updated": 31113,
  "Upload": 41143,
  "Upon": 24852,
  "Upper": 41744,
  "Upvotes": 3819,
  "Ur": 24183,
  "Urban": 35004,
  "Url": 33319,
  "Us": 5821,
  "Usage": 37137,
  "Use": 9801,
  "Used": 35950,
  "User": 11126,
  "Users": 29200,
  "Using": 9387,
  "Usually": 28751,
  "Ut": 20200,
  "Util": 40890,
  "Utils": 42671,
  "V": 70,
  "VA": 17103,
  "VAL": 18866,
  "VALID": 34589,
  "VALUE": 39221,
  "VC": 33084,
  "VD": 13445,
  "VE": 18525,
  "VEL": 28304,
  "VENT": 48932,
  "VER": 11684,
  "VERSION": 30948,
  "VERY": 39468,
  "VI": 10022,
  "VID": 6293,
  "VIEW": 34412,
  "VII": 22849,
  "VIII": 33527,
  "VIS": 36136,
  "VM": 20939,
  "VO": 44593,
  "VR": 24048,
  "VS": 42103,
  "VT": 31082,
  "Vacc": 38104,
  "Val": 6520,
  "Valid": 26744,
  "Validation": 33372,
  "Validator": 38200,
  "Value": 9763,
  "ValueError": 27253,
  "Values": 29887,
  "Van": 32981,
  "Var": 19391,
  "Vari": 18584,
  "Variable": 27851,
  "Various": 27809,
  "Ve": 25917,
  "Vec": 48763,
  "Vector": 26888,
  "Veget": 43489,
  "Vel": 47823,
  "Ven": 38103,
  "Ver": 16365,
  "Version": 22348,
  "Vertical": 45069,
  "Very": 26111,
  "Vi": 43298,
  "Victor": 39036,
  "Video": 20280,
  "Viet": 46552,
  "View": 7972,
  "ViewSet": 45957,
  "Vir": 34311,
  "Virgin": 39671,
  "Virginia": 45104,
  "Virtual": 30077,
  "Vis": 13169,
  "Vision": 43599,
  "Visit": 26210,
  "Visual": 25144,
  "Vitamin": 22585,
  "Vol": 14328,
  "Volume": 26579,
  "Vs": 23858,
  "W": 71,
  "WA": 15543,
  "WAR": 29719,
  "WARE": 25848,
  "WARNING": 40666,
  "WC": 28827,
  "WD": 27053,
  "WE": 23342,
  "WG": 45265,
  "WH": 14779,
  "WHAT": 30423,
  "WHO": 20948,
  "WID": 32242,
  "WIDTH": 43341,
  "WISE": 44624,
  "WM": 31949,
  "WOR": 42815,
  "WORK": 37216,
  "WP": 47306,
  "WR": 19532,
  "WS": 11283,
  "WT": 38659,
  "WW": 28025,
  "Wa": 39427,
  "Wait": 33359,
  "Wal": 42595,
  "Walk": 35564,
  "Walking": 46748,
  "Wall": 35934,
  "Want": 25254,
  "War": 22469,
  "Warning": 28710,
  "Was": 29477,
  "Wash": 48764,
  "Washington": 23856,
  "Watch": 20097,
  "Water": 12615,
  "Wave": 37819,
  "Way": 40689,
  "We": 1882,
  "Weather": 39939,
  "Web": 14172,
  "Webster": 41221,
  "Wed": 30249,
  "Wednesday": 36314,
  "Week": 28501,
  "Weight": 30474,
  "Welcome": 9085,
  "Well": 10768,
  "West": 19318,
  "Western": 24343,
  "Wet": 48135,
  "Wh": 2703,
  "What": 1780,
  "Whatever": 30696,
  "Whe": 12515,
  "When": 2427,
  "Whenever": 37003,
  "Where": 9576,
  "Whereas": 44157,
  "Whether": 16189,
  "Which": 14413,
  "While": 3965,
  "Whilst": 42443,
  "Whit": 45216,
  "White": 18629,
  "Who": 10576,
  "Whole": 44543,
  "Why": 4898,
  "Wid": 9852,
  "Widget": 15188,
  "Widgets": 22604,
  "Width": 27390,
  "Wik": 28701,
  "Wiki": 48366,
  "Wikimedia": 35367,
  "Wikipedia": 37309,
  "Wil": 28284,
  "Wild": 24951,
  "Will": 20314,
  "Willi": 17107,
  "William": 20949,
  "Williams": 37665,
  "Wilson": 43739,
  "Win": 37644,
  "Wind": 11929,
  "Window": 18664,
  "Windows": 25283,
  "Winter": 35027,
  "Wire": 42285,
  "Wis": 45011,
  "With": 3825,
  "Within": 19074,
  "Without": 20586,
  "Women": 17449,
  "Wood": 26065,
  "Word": 21268,
  "Words": 29553,
  "Work": 16923,
  "Working": 23830,
  "Works": 25474,
  "World": 11265,
  "Would": 26001,
  "Wow": 32373,
  "Wra": 32018,
  "Wrap": 41706,
  "Wrapper": 36460,
  "Writ": 9548,
  "Write": 19161,
  "Writer": 30684,
  "Writing": 21947,
  "Written": 25961,
  "X": 72,
  "XML": 33125,
  "XR": 22887,
  "XX": 9832,
  "XXXX": 21996,
  "XXXXXXXX": 40849,
  "XY": 32891,
  "Xiv": 26926,
  "Y": 73,
  "YC": 42734,
  "YO": 40464,
  "YP": 38571,
  "YPE": 31848,
  "YS": 19572,
  "YY": 34297,
  "Ye": 33605,
  "Yeah": 48954,
  "Year": 19840,
  "Years": 38457,
  "Yellow": 36086,
  "Yes": 10539,
  "Yet": 16075,
  "You": 2683,
  "Young": 22611,
  "Your": 7334,
  "Youth": 48573,
  "Z": 74,
  "ZE": 16722,
  "ZZ": 46276,
  "Zen": 48311,
  "Zero": 38767,
  "Zone": 40309,
  "[": 75,
  "[![": 27911,
  "[\"": 2790,
  "['": 1601,
  "[(": 25315,
  "[-": 9197,
  "[...,": 38680,
  "[:": 5240,
  "[:,": 7793,
  "[:,:,": 41453,
  "[:-": 23200,
  "[::-": 43788,
  "[:]": 38727,
  "[@": 45012,
  "[[": 32803,
  "[\\": 40561,
  "\\": 76,
  "\\\"": 35769,
  "\\'": 28183,
  "\\''": 35453,
  "\\*": 31894,
  "\\\\": 12332,
  "\\_": 13516,
  "\\_\\_": 32610,
  "]": 77,
  "]\"": 38045,
  "]\",": 49010,
  "]')": 47065,
  "]',": 37340,
  "](": 5257,
  "])": 2255,
  "]))": 10507,
  "])))": 39936,
  "]),": 11507,
  "]).": 21708,
  "]):": 16334,
  "])[": 47704,
  "])]": 43987,
  "]*": 19118,
  "]+": 18132,
  "],": 1750,
  "],[": 28500,
  "]-": 27707,
  "].": 2880,
  "]/": 24122,
  "]//": 35507,
  "]:": 7036,
  "];": 26695,
  "]<": 15971,
  "]=": 31418,
  "][": 4885,
  "][\"": 21982,
  "]['": 12552,
  "]\\": 43153,
  "]]": 7896,
  "]])": 20154,
  "]],": 20621,
  "]]:": 36325,
  "]][": 49082,
  "]{": 36939,
  "]|": 26822,
  "]||": 46200,
  "]}": 28852,
  "^": 78,
  "^\\": 44359,
  "^^": 23150,
  "^^^^": 37049,
  "^{": 21990,
  "_": 79,
  "_\"": 46671,
  "_%": 27158,
  "_'": 39710,
  "_(": 18028,
  "_)": 30157,
  "_,": 19902,
  "_.": 23626,
  "_:": 46382,
  "_[": 39779,
  "__": 890,
  "__\":": 18953,
  "__':": 15791,
  "__(": 3762,
  "__()": 18329,
  "__(*": 47361,
  "__)": 18281,
  "__))": 40758,
  "__),": 47145,
  "__,": 17996,
  "__.": 20898,
  "__.__": 26204,
  "__[\"": 37827,
  "___": 19129,
  "____": 3640,
  "_____": 44355,
  "________": 7283,
  "________________": 15498,
  "________________________________": 42117,
  "_{": 11300,
  "_{}": 32938,
  "`": 80,
  "`)": 38156,
  "`):": 45667,
  "`,": 9838,
  "`.": 9456,
  "`:": 21157,
  "``": 1969,
  "``,": 43654,
  "``.": 37660,
  "```": 3725,
  "a": 81,
  "aa": 11510,
  "aaS": 34236,
  "aaaa": 46880,
  "aan": 21192,
  "ab": 369,
  "aba": 20534,
  "abad": 21381,
  "abar": 47265,
  "abase": 4621,
  "abases": 11346,
  "abc": 25276,
  "abe": 23023,
  "abel": 20223,
  "abet": 3141,
  "abetes": 3715,
  "abeth": 8721,
  "abetic": 14478,
  "abetics": 30319,
  "abets": 43755,
  "abh": 48849,
  "abi": 21349,
  "abies": 29398,
  "abil": 8074,
  "abilia": 45315,
  "abilistic": 41006,
  "abilities": 3759,
  "ability": 1307,
  "abit": 45209,
  "abl": 38979,
  "able": 515,
  "abled": 7977,
  "ables": 1893,
  "abling": 26828,
  "ablo": 33670,
  "ably": 1756,
  "abo": 46442,
  "abol": 22716,
  "abolic": 22864,
  "abolism": 31906,
  "about": 10097,
  "abouts": 41300,
  "above": 28564,
  "abric": 30564,
  "abs": 7366,
  "absburg": 42681,
  "absol": 28792,
  "absolute": 31560,
  "absorb": 36685,
  "absorption": 39973,
  "abspath": 27813,
  "abstract": 22943,
  "abstractmethod": 38515,
  "abus": 20844,
  "abwe": 21517,
  "aby": 17853,
  "abytes": 37560,
  "ac": 387,
  "aca": 19728,
  "academ": 13717,
  "academia": 17729,
  "academic": 31713,
  "acao": 29556,
  "acc": 2487,
  "accel": 42259,
  "accept": 13485,
  "acceptable": 22831,
  "acceptance": 46093,
  "accepted": 43453,
  "access": 9465,
  "accessed": 27594,
  "accessible": 26914,
  "acchar": 24034,
  "accharide": 42943,
  "accharides": 33754,
  "acci": 39576,
  "acco": 8081,
  "according": 34169,
  "account": 12016,
  "accounts": 36801,
  "accum": 38196,
  "accur": 14222,
  "accuracy": 25873,
  "ace": 590,
  "acea": 23536,
  "aceae": 20111,
  "acean": 47887,
  "aceans": 27410,
  "aced": 2568,
  "acency": 31986,
  "acent": 8838,
  "aceous": 17530,
  "acer": 41492,
  "acerb": 12510,
  "aces": 1813,
  "acet": 37514,
  "aceted": 15849,
  "aceutical": 11721,
  "ach": 554,
  "acha": 45896,
  "achal": 46348,
  "ache": 4390,
  "ached": 2958,
  "achel": 10676,
  "achelor": 14771,
  "acher": 7989,
  "achers": 9210,
  "aches": 2597,
  "achev": 46249,
  "achi": 26347,
  "achie": 44572,
  "achine": 17510,
  "aching": 2019,
  "achment": 14462,
  "acht": 25844,
  "achus": 9509,
  "achusetts": 9865,
  "achy": 30416,
  "achycardia": 44622,
  "aci": 23371,
  "acia": 32036,
  "acial": 15105,
  "acic": 27083,
  "acid": 24529,
  "acies": 9092,
  "acific": 5624,
  "acillus": 26829,
  "acin": 42134,
  "acing": 4761,
  "acio": 43831,
  "acion": 38662,
  "acional": 37872,
  "acious": 19127,
  "acity": 12680,
  "aciÃ³n": 30094,
  "ack": 580,
  "acke": 14273,
  "acked": 25960,
  "acker": 41952,
  "ackexchange": 14745,
  "acking": 23753,
  "acks": 2472,
  "ackson": 9867,
  "acl": 27014,
  "aclass": 27049,
  "acle": 10662,
  "acles": 7731,
  "aco": 22667,
  "acon": 12275,
  "acons": 38317,
  "acre": 14802,
  "acs": 23293,
  "act": 471,
  "acter": 1269,
  "acteria": 16258,
  "acterial": 16785,
  "acters": 3663,
  "actic": 11848,
  "actin": 44539,
  "acting": 22214,
  "action": 4667,
  "actions": 6775,
  "activ": 47927,
  "activate": 34031,
  "activated": 27394,
  "activation": 21737,
  "active": 5138,
  "actively": 26929,
  "activities": 45672,
  "activity": 12292,
  "actly": 17950,
  "actor": 19781,
  "actors": 35430,
  "acts": 6323,
  "actual": 26286,
  "actually": 44693,
  "actus": 48704,
  "actyl": 42933,
  "acular": 13284,
  "aculture": 19389,
  "acus": 39214,
  "acute": 47724,
  "acy": 1809,
  "ad": 344,
  "ada": 6503,
  "adal": 32244,
  "adam": 33909,
  "adan": 24941,
  "adapt": 22202,
  "adaptive": 32960,
  "adas": 30859,
  "adata": 6895,
  "aday": 36757,
  "adays": 12844,
  "add": 2104,
  "addWidget": 31577,
  "addam": 40246,
  "added": 23083,
  "adden": 45469,
  "adder": 8874,
  "adders": 37149,
  "adding": 20921,
  "additional": 42337,
  "addle": 21003,
  "addr": 18678,
  "address": 10248,
  "addy": 26462,
  "ade": 903,
  "aded": 10218,
  "adel": 9809,
  "adelph": 10861,
  "adelphia": 11025,
  "adem": 2314,
  "aden": 38445,
  "adena": 38530,
  "adequ": 12211,
  "adequate": 45010,
  "ader": 12526,
  "aderie": 23286,
  "aders": 16942,
  "ades": 2968,
  "adh": 29694,
  "adi": 14466,
  "adia": 37268,
  "adian": 14444,
  "adic": 17698,
  "adier": 36408,
  "ading": 8200,
  "adir": 39409,
  "adish": 44615,
  "adium": 20178,
  "adj": 24158,
  "adjust": 24241,
  "adjusted": 36077,
  "admin": 14299,
  "administ": 35019,
  "ado": 5572,
  "adoes": 27843,
  "adone": 47442,
  "adoop": 44014,
  "ador": 11015,
  "adors": 30927,
  "ados": 18514,
  "adow": 19041,
  "adows": 27123,
  "adr": 28295,
  "ads": 6287,
  "adult": 46615,
  "adv": 25088,
  "advanced": 47464,
  "advant": 8911,
  "advantages": 35562,
  "advent": 41043,
  "advert": 26595,
  "ady": 8263,
  "ae": 2296,
  "aea": 30338,
  "aean": 45060,
  "aeda": 43527,
  "aedia": 44533,
  "ael": 6172,
  "aer": 43682,
  "aeus": 25460,
  "af": 1939,
  "afa": 33481,
  "afe": 9980,
  "afer": 31228,
  "afety": 20811,
  "aff": 2804,
  "affe": 22368,
  "affected": 23668,
  "affeine": 39750,
  "affin": 43380,
  "affirm": 29844,
  "afi": 39041,
  "afka": 35432,
  "afrost": 34097,
  "aft": 12951,
  "after": 9110,
  "afts": 32321,
  "ag": 454,
  "aga": 14978,
  "again": 24775,
  "against": 40462,
  "agan": 10112,
  "agar": 27377,
  "agara": 30311,
  "agas": 43983,
  "agascar": 24979,
  "age": 473,
  "ageal": 25372,
  "aged": 2450,
  "agement": 1664,
  "agen": 9767,
  "agency": 35439,
  "agent": 15159,
  "agents": 27606,
  "ager": 3587,
  "agers": 6013,
  "ages": 969,
  "aget": 39180,
  "agg": 10282,
  "agged": 39324,
  "agger": 12895,
  "aggering": 26680,
  "agging": 39782,
  "aggressions": 41987,
  "agh": 16851,
  "aghetti": 41247,
  "agi": 31407,
  "agia": 36551,
  "agiarism": 40145,
  "agic": 17394,
  "agine": 2135,
  "aging": 1883,
  "agland": 44952,
  "agle": 12896,
  "agles": 22931,
  "agn": 1480,
  "agna": 47450,
  "agne": 25185,
  "agnet": 28353,
  "agnetic": 9473,
  "agnetism": 39897,
  "ago": 5515,
  "agog": 12124,
  "agogue": 22619,
  "agogues": 37483,
  "agon": 5927,
  "agonal": 16749,
  "agoons": 47820,
  "agos": 28527,
  "agra": 43240,
  "agram": 7874,
  "agrams": 14391,
  "agraph": 7383,
  "agree": 34476,
  "agricult": 46696,
  "ags": 4008,
  "agu": 15394,
  "aguar": 39305,
  "ague": 5505,
  "agues": 6156,
  "agul": 31989,
  "agulation": 35464,
  "agus": 14821,
  "agy": 41749,
  "ah": 1287,
  "aha": 19754,
  "ahan": 29495,
  "ahead": 44786,
  "ahi": 38040,
  "ahili": 38878,
  "ahl": 21564,
  "ahn": 20371,
  "aho": 17124,
  "ahren": 19648,
  "ahrenheit": 20551,
  "ahs": 33013,
  "ahu": 21725,
  "ahua": 46867,
  "ai": 2554,
  "aic": 18665,
  "aid": 3755,
  "aida": 46467,
  "aign": 4344,
  "aii": 45630,
  "ail": 636,
  "ailability": 22795,
  "ailable": 8004,
  "ailand": 16006,
  "ailed": 7163,
  "ailing": 8476,
  "ailles": 36582,
  "ails": 4735,
  "ailure": 15808,
  "aily": 2628,
  "aim": 2170,
  "aimon": 48254,
  "ain": 402,
  "aine": 11581,
  "ained": 1832,
  "aining": 7978,
  "ains": 1253,
  "aint": 4852,
  "ainted": 18940,
  "ainting": 29447,
  "aints": 9710,
  "air": 1185,
  "aircraft": 46849,
  "aird": 40118,
  "aire": 19382,
  "aired": 7981,
  "aires": 47350,
  "airo": 21734,
  "airobi": 42958,
  "airs": 3848,
  "airy": 8023,
  "ais": 10117,
  "aise": 33815,
  "aiser": 30269,
  "aisy": 28047,
  "ait": 2889,
  "aita": 48516,
  "aith": 28761,
  "aj": 1346,
  "aja": 24171,
  "aji": 31813,
  "ajo": 25032,
  "ajor": 1618,
  "ak": 494,
  "aka": 10339,
  "akable": 48705,
  "ake": 575,
  "aked": 6863,
  "akedirs": 27900,
  "aken": 2052,
  "akening": 26923,
  "aker": 5251,
  "akers": 4797,
  "akes": 1154,
  "akespe": 10564,
  "akespeare": 10735,
  "akh": 12479,
  "aki": 13555,
  "akin": 40369,
  "aking": 894,
  "akings": 46294,
  "akis": 40314,
  "akistan": 8401,
  "akk": 37998,
  "ako": 39792,
  "akota": 15014,
  "akov": 35604,
  "akra": 31674,
  "aks": 5701,
  "aksh": 29906,
  "aku": 28277,
  "aky": 17947,
  "al": 272,
  "ala": 6710,
  "alach": 22877,
  "alam": 20462,
  "alamus": 32773,
  "alan": 40123,
  "aland": 48935,
  "alas": 28111,
  "alb": 35885,
  "alchemy": 29964,
  "alcoholic": 46674,
  "ald": 5343,
  "ale": 1121,
  "aled": 3991,
  "aleigh": 42537,
  "alent": 35427,
  "aler": 37854,
  "alers": 43964,
  "alert": 36407,
  "ales": 2002,
  "alese": 38864,
  "alez": 45805,
  "alf": 2209,
  "alfa": 33180,
  "alg": 12287,
  "algorithm": 43176,
  "ali": 8012,
  "alia": 15492,
  "alian": 6241,
  "alias": 31570,
  "alid": 15594,
  "alien": 42021,
  "align": 24350,
  "aligned": 33270,
  "alignment": 31940,
  "alin": 13453,
  "alination": 37427,
  "aline": 43251,
  "aling": 2416,
  "alion": 18892,
  "alions": 38862,
  "alis": 21052,
  "alism": 25821,
  "alities": 8702,
  "ality": 1064,
  "alive": 42355,
  "alk": 1727,
  "alking": 3198,
  "all": 449,
  "alla": 33401,
  "allas": 22741,
  "allclose": 29966,
  "alle": 4583,
  "alled": 18515,
  "allel": 17684,
  "allets": 32531,
  "alli": 42688,
  "allic": 33093,
  "alling": 15353,
  "allion": 47645,
  "allocation": 48745,
  "allow": 7016,
  "allowed": 26811,
  "alloween": 21942,
  "allows": 32349,
  "alls": 3255,
  "ally": 682,
  "alm": 9223,
  "almost": 27423,
  "alms": 27433,
  "alo": 13783,
  "aloader": 39407,
  "alog": 8584,
  "alom": 39548,
  "alon": 37426,
  "alone": 21140,
  "along": 28319,
  "alore": 43301,
  "alph": 21421,
  "alpha": 13433,
  "already": 47944,
  "als": 781,
  "alsa": 37071,
  "alse": 2140,
  "also": 9783,
  "alt": 4578,
  "alted": 34842,
  "alter": 31140,
  "altern": 29516,
  "alternative": 41756,
  "alth": 728,
  "although": 18497,
  "altitude": 38867,
  "alty": 36606,
  "alu": 2716,
  "aluable": 19907,
  "alus": 28362,
  "always": 36287,
  "aly": 3131,
  "alys": 28926,
  "alyses": 37157,
  "alysis": 5434,
  "alyst": 46137,
  "alytic": 35218,
  "am": 332,
  "ama": 4232,
  "aman": 14971,
  "amas": 23060,
  "amate": 33049,
  "amation": 13628,
  "amazon": 32504,
  "amb": 2980,
  "amba": 31135,
  "ambda": 6980,
  "amber": 43754,
  "ambia": 25669,
  "amble": 40480,
  "amboo": 17471,
  "amburg": 29881,
  "ame": 513,
  "amed": 2520,
  "amel": 14548,
  "amele": 39975,
  "amen": 30111,
  "ament": 3026,
  "amental": 4465,
  "amentals": 33123,
  "aments": 12630,
  "amer": 41582,
  "american": 46422,
  "ames": 1504,
  "amese": 46298,
  "ameter": 34028,
  "ami": 8119,
  "amic": 24923,
  "amide": 31973,
  "amiliar": 13633,
  "amin": 2576,
  "aminated": 33857,
  "amination": 8073,
  "amine": 7930,
  "amines": 25147,
  "aming": 6321,
  "amino": 40697,
  "aminophen": 35520,
  "amins": 8143,
  "amis": 33388,
  "aml": 15149,
  "amm": 2078,
  "amma": 9952,
  "ammad": 11679,
  "ammed": 21969,
  "ammers": 42425,
  "amming": 31546,
  "ammu": 46209,
  "ammy": 20563,
  "amo": 26626,
  "amom": 44569,
  "amon": 17319,
  "amond": 47670,
  "among": 34357,
  "amorph": 21654,
  "amos": 35264,
  "amoto": 36288,
  "amount": 18654,
  "amous": 14955,
  "amp": 1613,
  "ampa": 33497,
  "ampal": 45650,
  "amped": 29254,
  "amph": 23421,
  "amphetamine": 45166,
  "ampl": 6278,
  "ample": 2201,
  "amples": 3011,
  "ampling": 38577,
  "amps": 8819,
  "ampsia": 35721,
  "ampton": 32197,
  "ampunk": 48812,
  "ampus": 22550,
  "ams": 1785,
  "amus": 47529,
  "amy": 19150,
  "an": 276,
  "ana": 3231,
  "anah": 48959,
  "analy": 23518,
  "analysis": 14975,
  "anan": 33489,
  "anas": 12310,
  "anasia": 40975,
  "anation": 23545,
  "anc": 1148,
  "anca": 46563,
  "ance": 524,
  "anced": 2274,
  "ancel": 23047,
  "ancell": 21690,
  "ancellor": 26075,
  "ancer": 5844,
  "ancers": 17790,
  "ances": 1436,
  "anch": 5105,
  "anche": 21901,
  "anched": 32252,
  "anches": 7114,
  "anchez": 48858,
  "anchor": 36451,
  "anci": 45607,
  "ancial": 11214,
  "ancies": 13277,
  "ancing": 3799,
  "ancip": 45308,
  "ancipation": 21704,
  "anco": 48971,
  "ancock": 39838,
  "ancouver": 21067,
  "ancy": 3270,
  "and": 397,
  "anda": 6976,
  "andal": 18084,
  "andals": 43465,
  "andan": 38118,
  "andas": 30496,
  "ande": 47986,
  "andel": 26871,
  "andem": 29842,
  "ander": 5440,
  "andering": 42338,
  "anders": 32565,
  "andescent": 33033,
  "andez": 38741,
  "andi": 37615,
  "anding": 24248,
  "ando": 19347,
  "andom": 21914,
  "andon": 7646,
  "andra": 27922,
  "andro": 41328,
  "ands": 998,
  "andum": 35071,
  "andy": 21718,
  "ane": 1674,
  "anean": 9824,
  "aned": 33853,
  "aneous": 10308,
  "aneously": 21893,
  "anes": 6027,
  "anese": 45302,
  "aney": 32475,
  "ang": 604,
  "anga": 16756,
  "angan": 38752,
  "angar": 24920,
  "ange": 776,
  "anged": 5709,
  "angel": 11293,
  "angelo": 29110,
  "anger": 8876,
  "angered": 9082,
  "angerous": 32375,
  "angers": 12500,
  "anges": 5120,
  "angi": 27796,
  "angible": 27251,
  "anging": 4257,
  "angle": 6935,
  "angled": 39563,
  "angles": 14699,
  "angling": 47869,
  "ango": 6446,
  "angs": 26574,
  "angu": 1312,
  "anguage": 5231,
  "anguages": 20776,
  "anguard": 48203,
  "angular": 12368,
  "ani": 8026,
  "ania": 15571,
  "anian": 39085,
  "anic": 20447,
  "anical": 18081,
  "anim": 22709,
  "animal": 32535,
  "animals": 48960,
  "animate": 39562,
  "anine": 29753,
  "aning": 24061,
  "anish": 4314,
  "anism": 26891,
  "anity": 37565,
  "anium": 13187,
  "ank": 1459,
  "ankar": 42424,
  "anking": 39950,
  "anks": 3307,
  "ankton": 22792,
  "anmar": 22366,
  "ann": 1682,
  "anna": 13506,
  "annab": 22238,
  "annabis": 36305,
  "annah": 18122,
  "anne": 24631,
  "anned": 8997,
  "annel": 4644,
  "annels": 6270,
  "anners": 21475,
  "anni": 27317,
  "annie": 48913,
  "anning": 18808,
  "annon": 22522,
  "annot": 13365,
  "annotation": 35221,
  "annotations": 38283,
  "annual": 43350,
  "anny": 14472,
  "ano": 8123,
  "anoia": 43271,
  "anol": 12830,
  "another": 30378,
  "ans": 487,
  "ansas": 9405,
  "anse": 31634,
  "ansen": 34232,
  "ansi": 48494,
  "ansion": 6295,
  "ansk": 16766,
  "anskrit": 18241,
  "ansom": 21945,
  "anson": 35139,
  "answer": 11247,
  "answered": 37488,
  "answers": 44350,
  "ant": 403,
  "anta": 7687,
  "antage": 41673,
  "antan": 46616,
  "ante": 14648,
  "anted": 8733,
  "antes": 37168,
  "anth": 11709,
  "antha": 37198,
  "anthin": 45009,
  "anthrop": 24843,
  "anthropy": 35330,
  "anthus": 44325,
  "anti": 20524,
  "antial": 36443,
  "antib": 41527,
  "antic": 4605,
  "antics": 26419,
  "antine": 12910,
  "anting": 14559,
  "antis": 29417,
  "antly": 7659,
  "anto": 25341,
  "antom": 36357,
  "anton": 26596,
  "antry": 16509,
  "ants": 917,
  "anum": 48415,
  "anus": 23944,
  "anut": 47142,
  "any": 1111,
  "anya": 37430,
  "anyl": 40147,
  "anyon": 18422,
  "anz": 11080,
  "anza": 24166,
  "ao": 7006,
  "ap": 512,
  "apa": 22687,
  "apache": 24874,
  "apagos": 39011,
  "apan": 2935,
  "apart": 45128,
  "aparte": 42749,
  "ape": 1377,
  "apeake": 27685,
  "aped": 8877,
  "aper": 1581,
  "apers": 3823,
  "apes": 17381,
  "apest": 42822,
  "aph": 7495,
  "aphrag": 22362,
  "aphy": 18881,
  "aphyl": 30361,
  "aphyloc": 30561,
  "aphylococcus": 34798,
  "api": 5737,
  "apiens": 34499,
  "aping": 14605,
  "apiro": 43764,
  "apis": 44008,
  "aple": 19507,
  "apo": 39022,
  "apolis": 20543,
  "apon": 32156,
  "apons": 31146,
  "apor": 10114,
  "apore": 13248,
  "app": 1207,
  "appa": 29228,
  "apped": 9441,
  "append": 3137,
  "apper": 19849,
  "appiness": 38462,
  "apping": 5082,
  "appings": 34213,
  "apple": 21949,
  "apples": 48773,
  "application": 16841,
  "applied": 45699,
  "apply": 17477,
  "appointed": 47104,
  "appro": 21141,
  "appropri": 37212,
  "appropriate": 12994,
  "approved": 29074,
  "approx": 22046,
  "approximately": 31178,
  "apps": 26749,
  "appy": 6467,
  "aps": 1810,
  "apse": 8075,
  "apsed": 14539,
  "apses": 20454,
  "apsing": 32115,
  "apt": 1889,
  "apter": 2013,
  "apters": 36029,
  "aptic": 26135,
  "apture": 23772,
  "apur": 40999,
  "aq": 24330,
  "aqu": 33269,
  "aque": 21825,
  "ar": 280,
  "ara": 4075,
  "arab": 42705,
  "araderie": 23288,
  "arag": 27350,
  "arah": 22803,
  "arak": 48676,
  "aram": 29066,
  "aran": 15058,
  "arange": 19486,
  "arant": 5910,
  "araoh": 18695,
  "aras": 30494,
  "arat": 34019,
  "arate": 26922,
  "aration": 8974,
  "arations": 24720,
  "arative": 40894,
  "arb": 16354,
  "arbon": 16008,
  "arbonate": 40663,
  "arbons": 25013,
  "arc": 1487,
  "arcane": 39514,
  "arch": 818,
  "arches": 41379,
  "arching": 33179,
  "archive": 24806,
  "archy": 8575,
  "arcin": 30257,
  "arcinoma": 42928,
  "arck": 37023,
  "arco": 49109,
  "arctic": 45281,
  "ard": 477,
  "arded": 11969,
  "ardi": 19141,
  "ardia": 43984,
  "arding": 9386,
  "ardless": 13654,
  "ardo": 16077,
  "ardon": 30936,
  "ards": 1563,
  "ardship": 11926,
  "ardships": 22903,
  "are": 522,
  "area": 15664,
  "areas": 41181,
  "ared": 1214,
  "arel": 29065,
  "aren": 14177,
  "arent": 1397,
  "arently": 23318,
  "arer": 11353,
  "arers": 26959,
  "ares": 4275,
  "arest": 11844,
  "aret": 9258,
  "areth": 36114,
  "arette": 15549,
  "arettes": 13927,
  "arez": 37270,
  "arf": 42166,
  "arg": 938,
  "arge": 1224,
  "arget": 1988,
  "argmax": 34730,
  "argo": 12864,
  "argon": 26035,
  "args": 2661,
  "argument": 7428,
  "arguments": 24370,
  "argv": 15546,
  "arh": 48192,
  "ari": 2566,
  "aria": 6702,
  "ariah": 35938,
  "arial": 25966,
  "arian": 3769,
  "ariance": 28130,
  "arianism": 35050,
  "arians": 12015,
  "ariat": 20292,
  "arid": 40221,
  "arie": 43924,
  "aries": 2372,
  "arily": 2799,
  "arin": 17992,
  "arine": 24546,
  "aring": 1807,
  "ario": 5401,
  "arios": 8058,
  "arious": 11179,
  "aris": 29206,
  "arist": 26864,
  "arith": 26428,
  "arity": 6631,
  "arium": 10913,
  "arius": 21087,
  "ark": 792,
  "arked": 45879,
  "arking": 18085,
  "arks": 7789,
  "arl": 2108,
  "arly": 1019,
  "arm": 994,
  "arma": 13025,
  "armac": 28705,
  "armaceutical": 47070,
  "armament": 41425,
  "arman": 36630,
  "armed": 22960,
  "arming": 9535,
  "arms": 14001,
  "arn": 714,
  "arna": 44269,
  "arnation": 24188,
  "arner": 26836,
  "arness": 9336,
  "arning": 4646,
  "arnish": 35533,
  "aro": 22800,
  "aron": 15806,
  "around": 17862,
  "arp": 5392,
  "arr": 2110,
  "array": 4282,
  "arrays": 37534,
  "arre": 21717,
  "arring": 17081,
  "arris": 40329,
  "arrison": 22774,
  "arro": 45925,
  "arrow": 5281,
  "arrowing": 43004,
  "arry": 15875,
  "ars": 954,
  "arse": 13222,
  "arser": 4552,
  "arsh": 5555,
  "arson": 22003,
  "art": 434,
  "arta": 25980,
  "arte": 29565,
  "arten": 12559,
  "arter": 6003,
  "arters": 9172,
  "artes": 31789,
  "arth": 1553,
  "artha": 18267,
  "arthed": 29759,
  "arthen": 35240,
  "arthritis": 21582,
  "arthy": 29437,
  "article": 15459,
  "articles": 14073,
  "artist": 47492,
  "artment": 2708,
  "artments": 24932,
  "arton": 39201,
  "arts": 12019,
  "arty": 44180,
  "artz": 16358,
  "aru": 41147,
  "arum": 32234,
  "arus": 21777,
  "arv": 3342,
  "arvae": 46138,
  "arval": 27938,
  "arvation": 23766,
  "arxiv": 42022,
  "ary": 529,
  "arya": 34333,
  "aryng": 32382,
  "arynge": 29921,
  "aryngeal": 31057,
  "arynx": 28876,
  "as": 292,
  "asa": 14852,
  "asaki": 33541,
  "asan": 34088,
  "asant": 8999,
  "asarray": 31414,
  "asc": 2178,
  "ascal": 34315,
  "ascar": 23872,
  "asci": 21235,
  "ascii": 30414,
  "ascular": 6215,
  "ascus": 33724,
  "ase": 576,
  "ased": 821,
  "aseous": 32084,
  "aser": 6589,
  "asers": 16316,
  "ases": 1049,
  "aset": 4747,
  "asets": 11060,
  "asg": 25449,
  "asgow": 26932,
  "ash": 1317,
  "asha": 27118,
  "ashed": 12165,
  "ashes": 9604,
  "ashi": 19515,
  "ashing": 3540,
  "ashington": 4193,
  "ashion": 6359,
  "ashions": 48251,
  "ashire": 47271,
  "ashtra": 34440,
  "asi": 17834,
  "asia": 15312,
  "asian": 19977,
  "asies": 37744,
  "asing": 1817,
  "asion": 4574,
  "asionally": 25435,
  "asions": 26448,
  "asis": 12808,
  "asive": 6328,
  "ask": 1818,
  "aska": 8635,
  "askan": 37253,
  "asket": 24485,
  "asks": 3533,
  "asm": 9784,
  "asma": 9982,
  "asmine": 42725,
  "asmod": 36716,
  "asmodium": 47436,
  "asms": 29312,
  "aso": 34473,
  "ason": 1416,
  "asonry": 24307,
  "asons": 3130,
  "asp": 5352,
  "aspberries": 44274,
  "aspberry": 25625,
  "aspect": 48807,
  "asper": 31873,
  "asphem": 40708,
  "aspx": 31657,
  "ass": 520,
  "assa": 38713,
  "assador": 22818,
  "assadors": 36552,
  "assan": 26491,
  "asse": 26063,
  "assed": 19482,
  "assemb": 30797,
  "assemble": 46062,
  "assembled": 43597,
  "assembly": 34388,
  "asser": 31297,
  "assert": 3391,
  "assertAlmostEqual": 30462,
  "assertEqual": 5848,
  "assertEquals": 34420,
  "assertFalse": 33545,
  "assertIn": 34100,
  "assertIs": 27074,
  "assertIsInstance": 48899,
  "assertRaises": 23198,
  "assertTrue": 16619,
  "asses": 8090,
  "assessment": 32464,
  "asset": 27556,
  "assets": 32757,
  "assic": 25478,
  "assign": 28969,
  "assignment": 38574,
  "assing": 19955,
  "assion": 6828,
  "assis": 32075,
  "assisted": 30112,
  "assium": 10624,
  "assment": 12826,
  "asso": 24088,
  "associ": 17419,
  "associated": 21229,
  "assuming": 37101,
  "assy": 26872,
  "ast": 500,
  "asta": 42002,
  "aste": 4050,
  "asted": 14457,
  "aster": 1738,
  "astern": 5408,
  "asters": 6587,
  "astes": 40279,
  "astic": 2607,
  "astical": 18389,
  "astically": 15077,
  "astics": 10980,
  "asties": 33165,
  "asting": 13137,
  "astore": 48537,
  "astro": 41263,
  "astrous": 24170,
  "asts": 7185,
  "asty": 7348,
  "astype": 17797,
  "asu": 45763,
  "asure": 5238,
  "asured": 25891,
  "asures": 9412,
  "asuring": 22067,
  "asury": 18787,
  "asus": 26823,
  "asy": 7265,
  "asyn": 38558,
  "async": 17146,
  "asyncio": 46416,
  "at": 261,
  "ata": 706,
  "atable": 22683,
  "ataka": 35477,
  "atal": 6927,
  "atalog": 32495,
  "atan": 31934,
  "atar": 17425,
  "atars": 30961,
  "atas": 44093,
  "atch": 1503,
  "atche": 29373,
  "atched": 44931,
  "atches": 47011,
  "atchewan": 31224,
  "atching": 10144,
  "ate": 368,
  "ated": 483,
  "ateg": 1322,
  "ategic": 46914,
  "ategies": 37285,
  "ategor": 44398,
  "ategorical": 32560,
  "ategories": 20421,
  "ategory": 10480,
  "ategy": 24555,
  "ately": 1276,
  "atement": 38134,
  "aten": 16855,
  "atenate": 25687,
  "ateness": 36851,
  "ater": 571,
  "ateral": 10129,
  "aterally": 47053,
  "atered": 24528,
  "aterial": 1286,
  "aterials": 9481,
  "atern": 14646,
  "aternal": 10723,
  "aternary": 43811,
  "aternion": 44553,
  "aternity": 22468,
  "aters": 4361,
  "ates": 660,
  "ateur": 17919,
  "ateurs": 42896,
  "atever": 5755,
  "atform": 3495,
  "ath": 679,
  "atha": 23537,
  "atham": 38694,
  "athan": 11902,
  "athe": 6735,
  "athed": 37719,
  "ather": 1063,
  "atherapy": 39380,
  "athered": 7990,
  "atherine": 14687,
  "athers": 47852,
  "athetic": 25476,
  "athi": 40394,
  "athing": 47605,
  "athione": 33492,
  "athom": 45950,
  "athon": 23552,
  "aths": 21183,
  "athy": 43832,
  "athyroid": 44112,
  "ati": 10232,
  "atial": 7318,
  "atians": 41902,
  "atic": 1442,
  "atica": 36508,
  "atically": 4850,
  "atican": 23166,
  "atics": 20924,
  "atile": 10077,
  "atility": 16058,
  "atim": 46572,
  "atin": 4474,
  "ating": 674,
  "atinum": 27989,
  "atio": 29395,
  "ation": 309,
  "ational": 780,
  "ationally": 13579,
  "ations": 491,
  "atis": 15097,
  "atism": 31212,
  "atitis": 22853,
  "atius": 49012,
  "ative": 791,
  "atively": 3047,
  "atives": 2185,
  "ativity": 20035,
  "atization": 25521,
  "atized": 32982,
  "atlantic": 38740,
  "ato": 6401,
  "atoes": 10674,
  "atology": 27143,
  "atom": 21411,
  "atomic": 28083,
  "atoms": 30602,
  "atomy": 45623,
  "aton": 23230,
  "atonic": 41672,
  "atonin": 22897,
  "ator": 1508,
  "atorial": 27782,
  "atories": 12616,
  "atorium": 32421,
  "ators": 1857,
  "atory": 1912,
  "atos": 46159,
  "atosis": 43740,
  "atra": 20506,
  "atre": 11734,
  "atri": 25772,
  "atro": 47923,
  "ats": 1457,
  "atsby": 37506,
  "atson": 19201,
  "atsu": 40521,
  "att": 2192,
  "atta": 28622,
  "attach": 36293,
  "attachment": 41184,
  "attack": 28102,
  "attacks": 36235,
  "attempt": 46321,
  "atten": 42434,
  "attention": 26256,
  "atter": 2494,
  "attered": 11237,
  "atteries": 41132,
  "attering": 30061,
  "atters": 42154,
  "attery": 21032,
  "atti": 40138,
  "attice": 23840,
  "attle": 3537,
  "atto": 26755,
  "attoo": 28455,
  "attoos": 36520,
  "attr": 7857,
  "attrib": 39929,
  "attribute": 19163,
  "attributes": 20354,
  "attrs": 22905,
  "atts": 24898,
  "atu": 38556,
  "atum": 21542,
  "atur": 3821,
  "atura": 44545,
  "atural": 1515,
  "aturally": 5581,
  "aturated": 16941,
  "aturation": 40989,
  "aturday": 13547,
  "ature": 906,
  "atures": 1907,
  "aturing": 43684,
  "aturity": 43677,
  "atus": 4071,
  "aty": 46158,
  "atype": 43668,
  "atz": 31525,
  "au": 603,
  "auc": 12100,
  "aucoma": 21409,
  "aud": 6155,
  "audi": 15313,
  "audio": 25492,
  "auer": 20304,
  "aug": 12171,
  "augh": 2243,
  "aughed": 30791,
  "aught": 3731,
  "aughter": 5256,
  "aughtered": 37259,
  "aughters": 15248,
  "augment": 44801,
  "aul": 4154,
  "ault": 2131,
  "aum": 42580,
  "aund": 13943,
  "aunder": 41367,
  "aundering": 45068,
  "aunders": 34064,
  "aundice": 32396,
  "aunt": 13660,
  "aunted": 41988,
  "aunting": 19007,
  "aur": 4227,
  "aura": 47522,
  "auri": 34032,
  "aurus": 21895,
  "aus": 15763,
  "ause": 733,
  "ausea": 13881,
  "auses": 17064,
  "aust": 42704,
  "aut": 1648,
  "auth": 10409,
  "authent": 27978,
  "author": 7076,
  "authored": 33265,
  "authorized": 19056,
  "authors": 19211,
  "autical": 26222,
  "autics": 36919,
  "autiful": 44682,
  "aution": 29329,
  "autions": 14730,
  "auto": 15746,
  "autom": 35917,
  "auts": 40455,
  "aux": 13981,
  "av": 565,
  "ava": 6056,
  "avage": 38648,
  "availability": 33189,
  "available": 14036,
  "aval": 16263,
  "avan": 22601,
  "avar": 30256,
  "avas": 40977,
  "ave": 1134,
  "aved": 8883,
  "avement": 30092,
  "aven": 11204,
  "aver": 10247,
  "average": 18938,
  "avering": 31389,
  "avers": 24582,
  "aves": 2080,
  "avez": 45675,
  "avg": 20452,
  "avi": 28352,
  "avia": 32838,
  "avian": 33991,
  "avid": 42358,
  "avier": 31329,
  "aving": 2584,
  "avirus": 11258,
  "aviruses": 46888,
  "avit": 48118,
  "avoid": 24550,
  "avor": 2675,
  "avorable": 32237,
  "avorite": 42305,
  "avour": 44050,
  "avy": 14940,
  "aw": 912,
  "awa": 10734,
  "await": 48168,
  "awak": 48202,
  "awan": 44982,
  "aware": 9290,
  "awareness": 18769,
  "awatt": 41675,
  "awatts": 36262,
  "away": 11408,
  "aways": 28759,
  "awed": 27242,
  "awi": 22654,
  "awing": 30504,
  "awk": 27134,
  "awn": 7577,
  "awning": 41817,
  "aws": 7776,
  "ax": 951,
  "axanthin": 48748,
  "axes": 20736,
  "axial": 39890,
  "axis": 7814,
  "axon": 16898,
  "axy": 25561,
  "ay": 341,
  "aya": 10675,
  "ayama": 45073,
  "ayan": 18596,
  "ayana": 25155,
  "ayas": 27555,
  "ayed": 31907,
  "ayer": 25637,
  "ayette": 44748,
  "aying": 21127,
  "aylor": 11332,
  "ays": 646,
  "az": 1437,
  "aza": 15540,
  "azar": 28922,
  "azard": 29675,
  "aze": 9699,
  "azed": 17413,
  "azer": 47032,
  "azers": 44458,
  "azes": 28843,
  "azi": 22976,
  "azine": 8228,
  "azines": 16781,
  "azing": 4750,
  "azole": 32616,
  "azon": 8306,
  "azure": 44270,
  "azy": 16899,
  "azz": 9833,
  "azzo": 47407,
  "aÃ±": 47048,
  "b": 82,
  "ba": 8094,
  "baby": 47049,
  "bach": 22127,
  "back": 2676,
  "backed": 30187,
  "backend": 24179,
  "backends": 43034,
  "background": 24890,
  "backs": 9917,
  "backup": 37335,
  "backward": 33916,
  "bad": 12708,
  "bag": 29874,
  "bage": 11263,
  "bags": 41874,
  "bah": 44915,
  "bai": 25539,
  "bal": 4241,
  "balance": 21500,
  "balanced": 23229,
  "ball": 5140,
  "balls": 28172,
  "ban": 2947,
  "band": 5640,
  "bands": 22651,
  "bane": 34048,
  "bank": 19501,
  "banks": 34110,
  "bar": 6299,
  "bara": 48645,
  "bard": 29284,
  "bars": 33368,
  "bas": 9317,
  "base": 6822,
  "based": 2542,
  "baseline": 42664,
  "basename": 28953,
  "bases": 48861,
  "bash": 44029,
  "basic": 22499,
  "basis": 32417,
  "bat": 11325,
  "batch": 7707,
  "batches": 38620,
  "bath": 19158,
  "baum": 27213,
  "bay": 33969,
  "baz": 45511,
  "bb": 15659,
  "bbox": 28105,
  "bc": 24334,
  "bd": 34722,
  "be": 1425,
  "beam": 27823,
  "bean": 9278,
  "beans": 24365,
  "bear": 32011,
  "bearing": 18885,
  "beat": 15727,
  "beats": 40106,
  "bec": 11169,
  "because": 17587,
  "becca": 28674,
  "beck": 23631,
  "bed": 5776,
  "bedo": 47477,
  "beds": 45107,
  "bee": 20728,
  "been": 39139,
  "bees": 29412,
  "before": 17985,
  "beg": 43182,
  "begin": 21083,
  "behav": 40201,
  "behavior": 24834,
  "behavioral": 33684,
  "being": 4709,
  "beit": 17484,
  "bek": 25069,
  "bel": 9150,
  "belie": 23282,
  "belief": 28907,
  "bell": 10160,
  "bellum": 34859,
  "below": 31044,
  "belt": 34976,
  "belts": 45721,
  "ben": 12446,
  "bench": 27901,
  "benchmark": 47882,
  "benefit": 40490,
  "ber": 593,
  "bered": 31753,
  "berg": 5799,
  "berger": 25311,
  "bergs": 47446,
  "berra": 38024,
  "berries": 11895,
  "berry": 9500,
  "bers": 1344,
  "bersome": 39288,
  "berspace": 37062,
  "bert": 6338,
  "berty": 22740,
  "bery": 22609,
  "bes": 15454,
  "best": 9056,
  "bestos": 14631,
  "bet": 12297,
  "beta": 17565,
  "beth": 21899,
  "better": 29723,
  "between": 18946,
  "bey": 18949,
  "bf": 20104,
  "bg": 25546,
  "bh": 43701,
  "bi": 5198,
  "bian": 14958,
  "bians": 45180,
  "bias": 19833,
  "biased": 30104,
  "bid": 15686,
  "bidden": 40219,
  "bie": 34279,
  "bies": 16460,
  "big": 17214,
  "bill": 30717,
  "billed": 46109,
  "billion": 39109,
  "bilt": 39531,
  "bin": 7089,
  "binary": 18290,
  "bind": 20984,
  "binding": 26057,
  "bing": 7519,
  "bins": 20364,
  "bio": 30096,
  "biological": 34033,
  "biology": 21222,
  "biosis": 36892,
  "bird": 14833,
  "birds": 17110,
  "birth": 17202,
  "bis": 23615,
  "bish": 34947,
  "bishop": 23226,
  "bit": 3333,
  "bite": 32613,
  "bits": 9229,
  "bius": 44880,
  "bl": 2658,
  "black": 13567,
  "bladder": 30635,
  "blank": 18847,
  "blast": 33544,
  "blasts": 47034,
  "ble": 854,
  "bled": 14101,
  "blem": 9499,
  "blems": 12937,
  "bler": 32768,
  "blers": 35887,
  "bles": 7608,
  "blind": 22627,
  "bling": 14967,
  "blob": 27565,
  "block": 9189,
  "blocking": 46136,
  "blocks": 20233,
  "blog": 18844,
  "blogs": 47337,
  "blood": 20515,
  "blooded": 45098,
  "blow": 20950,
  "blowing": 40069,
  "blown": 33995,
  "blu": 39321,
  "blue": 16591,
  "bly": 30437,
  "bm": 38302,
  "bn": 12624,
  "bo": 2740,
  "board": 4265,
  "boarding": 28022,
  "boards": 15305,
  "boat": 22283,
  "boats": 27417,
  "bodied": 38201,
  "body": 5226,
  "bohyd": 28163,
  "bohydrate": 41417,
  "bohydrates": 41840,
  "bol": 3006,
  "bola": 18016,
  "bold": 30471,
  "bolic": 32277,
  "bolt": 47296,
  "bomb": 48957,
  "bon": 2403,
  "bond": 35262,
  "bone": 12571,
  "bones": 39384,
  "bons": 27249,
  "book": 3767,
  "books": 8981,
  "bool": 13986,
  "boolean": 42035,
  "boost": 47277,
  "boot": 28356,
  "bor": 3259,
  "border": 21670,
  "bore": 29383,
  "borg": 32848,
  "borhood": 33257,
  "born": 6862,
  "borne": 9900,
  "boro": 32468,
  "borough": 22829,
  "bors": 20766,
  "bos": 34761,
  "bot": 9433,
  "both": 15135,
  "bots": 32722,
  "bott": 29342,
  "bottom": 20339,
  "bought": 48112,
  "bound": 10750,
  "boundary": 32510,
  "bounds": 22532,
  "bour": 10803,
  "bourg": 40914,
  "bourne": 18916,
  "bow": 10314,
  "bows": 27100,
  "box": 4810,
  "boxes": 17060,
  "boy": 25009,
  "boys": 37260,
  "bp": 31272,
  "bps": 31708,
  "br": 1612,
  "bra": 6838,
  "brahim": 40286,
  "brain": 19294,
  "bral": 14122,
  "brance": 24918,
  "branch": 25450,
  "brand": 24279,
  "brandt": 46122,
  "brane": 33244,
  "bras": 37938,
  "braska": 19766,
  "brate": 17150,
  "brates": 17518,
  "bration": 46437,
  "bre": 3804,
  "bread": 27303,
  "break": 17653,
  "breaking": 11194,
  "breaks": 43627,
  "breat": 36994,
  "bred": 27099,
  "breeding": 28886,
  "brev": 41125,
  "brew": 46721,
  "bri": 31045,
  "brid": 8409,
  "bridge": 7502,
  "brids": 22904,
  "brief": 48458,
  "bright": 29778,
  "bringing": 33035,
  "bris": 10226,
  "bro": 11699,
  "broad": 32503,
  "broken": 30048,
  "brook": 33585,
  "brother": 41820,
  "brow": 24719,
  "brown": 22216,
  "browser": 31430,
  "brush": 18060,
  "brushes": 41652,
  "bs": 1419,
  "bsite": 18882,
  "bsites": 35755,
  "bsp": 32093,
  "bt": 10781,
  "btn": 17441,
  "bu": 10374,
  "buck": 34906,
  "bucket": 21948,
  "bud": 29795,
  "budget": 44390,
  "buf": 32793,
  "buff": 39224,
  "buffer": 18272,
  "bug": 8202,
  "bugs": 29586,
  "build": 9126,
  "builder": 28075,
  "builders": 46143,
  "building": 13161,
  "built": 18511,
  "bul": 10801,
  "bull": 39211,
  "bullying": 21527,
  "bund": 35659,
  "buquerque": 48468,
  "bur": 7993,
  "burg": 6839,
  "burgh": 12943,
  "burn": 11302,
  "burne": 48665,
  "burning": 34306,
  "burse": 31459,
  "burst": 35812,
  "bursts": 44445,
  "bury": 10901,
  "bus": 17876,
  "bush": 45463,
  "business": 24406,
  "but": 5476,
  "button": 13046,
  "buttons": 47774,
  "buy": 41838,
  "by": 1717,
  "bye": 25257,
  "byte": 26846,
  "byter": 25209,
  "bytes": 15829,
  "c": 83,
  "ca": 6246,
  "cache": 12377,
  "cached": 35741,
  "cad": 39599,
  "cal": 5020,
  "calc": 22966,
  "calcul": 21870,
  "calculate": 32570,
  "cale": 23758,
  "calendar": 47500,
  "call": 4350,
  "callback": 20069,
  "callbacks": 48731,
  "called": 6900,
  "calls": 34723,
  "calorie": 37025,
  "cam": 12744,
  "came": 35324,
  "camera": 27897,
  "camp": 32828,
  "campus": 47390,
  "can": 4055,
  "canc": 36361,
  "cancel": 37341,
  "cancer": 25439,
  "cancerous": 48471,
  "cand": 24130,
  "candidate": 38897,
  "cannot": 33551,
  "cans": 36424,
  "canvas": 31236,
  "cap": 4600,
  "capac": 47320,
  "capacity": 32606,
  "cape": 3541,
  "capes": 7802,
  "caping": 27858,
  "capital": 29721,
  "caps": 40700,
  "capt": 36014,
  "caption": 46433,
  "capture": 40651,
  "car": 7813,
  "carb": 39684,
  "carbon": 18647,
  "card": 12172,
  "cardia": 37178,
  "cards": 16640,
  "care": 3325,
  "carotene": 40827,
  "carrying": 43318,
  "cars": 40112,
  "cart": 33836,
  "cas": 27188,
  "case": 7544,
  "cases": 24407,
  "cash": 46784,
  "cast": 4288,
  "caster": 41607,
  "casters": 36179,
  "casting": 25445,
  "castle": 28091,
  "casts": 36633,
  "cat": 9786,
  "catalog": 41325,
  "catch": 31419,
  "catching": 38555,
  "categorical": 43400,
  "categories": 28808,
  "category": 15833,
  "cation": 45983,
  "cats": 40578,
  "cause": 35731,
  "caused": 36778,
  "causing": 27404,
  "cb": 22076,
  "cc": 509,
  "cca": 16063,
  "ccentric": 25816,
  "ccess": 1358,
  "cci": 42848,
  "ccoli": 18997,
  "ccording": 2805,
  "cd": 13133,
  "cdc": 37526,
  "cdot": 41591,
  "ce": 319,
  "ceae": 35152,
  "cean": 3565,
  "ceans": 9884,
  "ced": 766,
  "cedented": 12614,
  "cedure": 46642,
  "ceed": 3196,
  "ceedings": 16348,
  "ceeds": 12719,
  "ceil": 40655,
  "ceive": 9425,
  "ceived": 5955,
  "cel": 5906,
  "celain": 23905,
  "celand": 16523,
  "cele": 41999,
  "cell": 5396,
  "celled": 46301,
  "cellent": 46664,
  "cells": 22546,
  "cellular": 17499,
  "cels": 38730,
  "cember": 4305,
  "cemia": 25418,
  "cemic": 25761,
  "cence": 16142,
  "cens": 43796,
  "cent": 1050,
  "center": 13058,
  "centered": 20535,
  "centers": 44197,
  "central": 19994,
  "centric": 25769,
  "century": 9051,
  "ceph": 34512,
  "cephal": 19739,
  "cephalus": 45198,
  "cept": 825,
  "ceptible": 40692,
  "ception": 3296,
  "ceptions": 7665,
  "ceptive": 19973,
  "ceptives": 38807,
  "ceptor": 33274,
  "ceptors": 38522,
  "cepts": 33686,
  "ceptual": 25352,
  "cer": 1704,
  "cere": 44065,
  "cerity": 40470,
  "cerpt": 39904,
  "cers": 5577,
  "cert": 19249,
  "certain": 24496,
  "certainty": 33622,
  "certified": 40427,
  "ces": 561,
  "cess": 700,
  "cession": 17461,
  "cessions": 31306,
  "cessive": 41096,
  "cest": 5597,
  "cester": 30529,
  "cf": 8454,
  "cfg": 13452,
  "cfm": 48358,
  "cgi": 44704,
  "ch": 322,
  "cha": 14884,
  "chain": 8625,
  "chains": 32285,
  "chair": 21867,
  "chairs": 44005,
  "chal": 42932,
  "chall": 28010,
  "chan": 2410,
  "change": 3520,
  "changed": 16716,
  "changes": 28286,
  "changing": 16845,
  "chanical": 23927,
  "chanics": 33612,
  "channel": 12078,
  "channels": 14244,
  "chant": 28533,
  "chap": 46573,
  "chapter": 42895,
  "char": 9061,
  "character": 23206,
  "charg": 11821,
  "charge": 8172,
  "charged": 34773,
  "charging": 40576,
  "chars": 33879,
  "chart": 20758,
  "charted": 42957,
  "chat": 16377,
  "chdir": 43905,
  "che": 2916,
  "check": 5875,
  "checked": 22906,
  "checker": 47651,
  "checking": 40296,
  "checkpoint": 27790,
  "checks": 31285,
  "ched": 2823,
  "chel": 25722,
  "chell": 19605,
  "chem": 13079,
  "chemical": 26635,
  "chemy": 20938,
  "chen": 7554,
  "chens": 28007,
  "cher": 6373,
  "chers": 6134,
  "chery": 28561,
  "ches": 2476,
  "chester": 40524,
  "chet": 43923,
  "chev": 39758,
  "chez": 46487,
  "chi": 13849,
  "chie": 2021,
  "chief": 23868,
  "child": 7215,
  "children": 11877,
  "chin": 23831,
  "ching": 4270,
  "chini": 39698,
  "chins": 46002,
  "chio": 44004,
  "chip": 27080,
  "chips": 49105,
  "chism": 47067,
  "chle": 30648,
  "chlor": 22228,
  "chn": 831,
  "chner": 46020,
  "chnology": 9806,
  "cho": 7463,
  "choice": 17207,
  "choices": 32856,
  "chol": 2996,
  "cholester": 43146,
  "choline": 42006,
  "choly": 42426,
  "chool": 941,
  "choose": 44229,
  "chosen": 48865,
  "chr": 23411,
  "chrane": 37716,
  "chre": 45555,
  "christ": 48649,
  "chrom": 24251,
  "chrome": 32966,
  "chron": 9962,
  "chronic": 40173,
  "chronous": 25235,
  "chs": 42076,
  "cht": 18880,
  "chu": 28576,
  "chunk": 27507,
  "chunks": 45430,
  "church": 38590,
  "chus": 29734,
  "chy": 18179,
  "ci": 605,
  "cia": 37900,
  "cial": 2414,
  "cian": 35614,
  "cibility": 45876,
  "cible": 28006,
  "cid": 30161,
  "cience": 6209,
  "ciences": 32566,
  "cient": 2043,
  "cientious": 35349,
  "cies": 11298,
  "cig": 24305,
  "cigarette": 48451,
  "cigarettes": 32275,
  "cin": 10328,
  "cine": 47351,
  "cing": 1414,
  "cio": 17049,
  "cious": 3637,
  "ciously": 16720,
  "cip": 46654,
  "cipe": 9052,
  "cipl": 4086,
  "ciples": 3109,
  "ciplinary": 10336,
  "cipline": 25762,
  "cir": 12627,
  "circ": 21386,
  "circa": 49031,
  "circle": 29733,
  "circuit": 33355,
  "cisco": 45621,
  "cision": 15730,
  "cit": 24375,
  "citation": 48826,
  "cited": 40235,
  "citizens": 47978,
  "city": 20721,
  "cium": 6339,
  "cius": 37184,
  "civil": 35751,
  "ck": 936,
  "cke": 43266,
  "cked": 18825,
  "cken": 47646,
  "cker": 14406,
  "cking": 4457,
  "cko": 36278,
  "ckpt": 47909,
  "cks": 3321,
  "cl": 497,
  "claim": 6843,
  "claimed": 11613,
  "claimer": 23344,
  "clair": 36654,
  "clamation": 16163,
  "class": 2064,
  "classes": 12734,
  "classic": 48874,
  "classical": 46917,
  "classification": 32791,
  "classified": 36368,
  "classifier": 34271,
  "classmethod": 16986,
  "clay": 45673,
  "cle": 1668,
  "clean": 12777,
  "cleaned": 40055,
  "clear": 10086,
  "cled": 38780,
  "cler": 12906,
  "clerosis": 15787,
  "cles": 3042,
  "clesi": 22296,
  "clesiastical": 27748,
  "clf": 42339,
  "cli": 19918,
  "click": 11584,
  "clicked": 41415,
  "clid": 45768,
  "clide": 26604,
  "clidean": 29476,
  "client": 6537,
  "clients": 45559,
  "cliffe": 47187,
  "clim": 35085,
  "climate": 25200,
  "cline": 44096,
  "cling": 35029,
  "clinical": 24346,
  "clip": 14194,
  "clips": 28265,
  "clipse": 19134,
  "clock": 17466,
  "clockwise": 37897,
  "clone": 33051,
  "clos": 9638,
  "close": 7633,
  "closed": 12739,
  "closing": 28061,
  "closure": 12050,
  "closures": 25834,
  "cloth": 33812,
  "cloud": 16342,
  "cls": 11191,
  "club": 40674,
  "clud": 710,
  "clude": 8886,
  "cluded": 11010,
  "cludes": 16272,
  "cluding": 6837,
  "clus": 1684,
  "clusion": 2398,
  "clusions": 8800,
  "clusive": 5560,
  "clusively": 11693,
  "clusivity": 13218,
  "cluster": 14893,
  "clusters": 27631,
  "cm": 6946,
  "cmap": 40754,
  "cmd": 12257,
  "cms": 48367,
  "cn": 23797,
  "cnn": 41010,
  "cnt": 24864,
  "co": 1881,
  "coal": 20520,
  "coast": 47874,
  "coat": 33746,
  "coated": 37538,
  "cock": 28505,
  "coco": 46635,
  "cod": 24733,
  "code": 4635,
  "coded": 40593,
  "codes": 27861,
  "coding": 32306,
  "coe": 41693,
  "coef": 38675,
  "coeff": 37829,
  "cognitive": 37771,
  "coh": 3835,
  "cohol": 4125,
  "coholic": 19205,
  "coin": 11598,
  "coins": 33771,
  "col": 2283,
  "cold": 32379,
  "coll": 20236,
  "collect": 19190,
  "collection": 20012,
  "collections": 36789,
  "college": 43268,
  "colm": 25001,
  "cology": 19646,
  "colonial": 19867,
  "color": 6713,
  "colored": 20296,
  "colors": 18625,
  "colour": 31991,
  "coloured": 44873,
  "cols": 19929,
  "column": 8126,
  "columns": 13354,
  "com": 824,
  "coma": 16688,
  "comb": 14558,
  "combe": 43817,
  "combined": 41341,
  "combo": 46828,
  "come": 2578,
  "comed": 18009,
  "comes": 3952,
  "comfort": 7171,
  "coming": 5524,
  "comings": 26704,
  "comm": 4310,
  "command": 9151,
  "commands": 20245,
  "comment": 3591,
  "comments": 28896,
  "commerce": 23900,
  "commercial": 33609,
  "commit": 15593,
  "committee": 39318,
  "common": 8708,
  "commons": 35990,
  "commun": 9919,
  "communication": 24771,
  "communications": 21165,
  "community": 29707,
  "comp": 3437,
  "compan": 39580,
  "company": 30366,
  "compar": 28164,
  "compare": 31316,
  "compared": 48085,
  "comparison": 47412,
  "compassion": 40297,
  "compat": 18327,
  "compatible": 24050,
  "compet": 19413,
  "competitive": 49115,
  "compile": 20531,
  "compiler": 48663,
  "compl": 34728,
  "complete": 12583,
  "completed": 41378,
  "complex": 24861,
  "compliance": 37283,
  "component": 22131,
  "components": 22195,
  "composition": 41690,
  "compress": 40872,
  "compressed": 43147,
  "compression": 36010,
  "comput": 10810,
  "compute": 21855,
  "computer": 20528,
  "computers": 37297,
  "computing": 47938,
  "comycin": 41211,
  "con": 607,
  "conc": 7781,
  "concat": 29930,
  "concatenate": 28618,
  "concent": 44695,
  "concept": 27430,
  "conciliation": 35545,
  "cond": 1429,
  "condition": 17315,
  "conditioning": 45778,
  "conditions": 29632,
  "conds": 6087,
  "conduct": 20445,
  "cone": 47545,
  "conf": 7427,
  "confidence": 20189,
  "config": 3797,
  "configs": 34157,
  "configuration": 21915,
  "configure": 27205,
  "confirm": 26593,
  "confirmed": 40947,
  "conflict": 44669,
  "conform": 47054,
  "cong": 43528,
  "coni": 46933,
  "conn": 4116,
  "connect": 7958,
  "connected": 8222,
  "connection": 14454,
  "connections": 41153,
  "conom": 1335,
  "conomic": 5602,
  "cons": 4005,
  "conscious": 10475,
  "consciously": 30062,
  "consciousness": 41896,
  "consider": 23654,
  "consin": 12546,
  "console": 38461,
  "const": 4794,
  "constant": 24559,
  "constants": 28609,
  "constraint": 40793,
  "constraints": 44335,
  "construct": 20546,
  "construction": 17695,
  "consumer": 34569,
  "consuming": 23770,
  "consumption": 44461,
  "cont": 2651,
  "contact": 21846,
  "contained": 35820,
  "container": 19899,
  "containing": 21971,
  "contains": 30756,
  "contaminated": 45970,
  "contamination": 34397,
  "content": 7070,
  "contents": 27775,
  "context": 9001,
  "contin": 10725,
  "continence": 33667,
  "continent": 28494,
  "continental": 38035,
  "continue": 36814,
  "continuous": 46857,
  "contour": 43847,
  "contract": 26169,
  "contrast": 39849,
  "contrib": 20478,
  "control": 11656,
  "controll": 24701,
  "controlled": 14912,
  "controller": 20711,
  "controllers": 41619,
  "conv": 10633,
  "conventional": 45417,
  "convers": 48785,
  "conversion": 41065,
  "convert": 20068,
  "converter": 47331,
  "cook": 26681,
  "cooked": 33962,
  "cookie": 42833,
  "cool": 22895,
  "cooled": 48757,
  "coord": 15040,
  "coordinate": 38263,
  "coordinates": 33784,
  "coords": 24142,
  "cop": 16827,
  "coprote": 47751,
  "copy": 9654,
  "copyright": 43060,
  "cor": 7033,
  "core": 8174,
  "cores": 16009,
  "corn": 21355,
  "corpus": 41853,
  "corr": 33559,
  "correct": 18382,
  "correlation": 48752,
  "corrh": 44185,
  "cos": 12374,
  "cosm": 46121,
  "cost": 11386,
  "cot": 21879,
  "cott": 19480,
  "cou": 36122,
  "could": 26117,
  "count": 4639,
  "counter": 13189,
  "countries": 47252,
  "country": 16664,
  "counts": 22328,
  "course": 15681,
  "courses": 42948,
  "court": 42879,
  "cov": 20496,
  "cover": 18673,
  "coverage": 43618,
  "covered": 30166,
  "covering": 40919,
  "covers": 41068,
  "covery": 8738,
  "cox": 40718,
  "cp": 15766,
  "cpp": 35392,
  "cpu": 18302,
  "cr": 11170,
  "cra": 20231,
  "craft": 4224,
  "crafted": 32944,
  "crapers": 39520,
  "cre": 668,
  "creas": 19035,
  "creat": 22756,
  "create": 5957,
  "created": 15153,
  "creating": 42915,
  "creation": 20161,
  "creative": 39738,
  "creator": 45080,
  "cred": 21432,
  "credentials": 35676,
  "credit": 36332,
  "creen": 8921,
  "cret": 3138,
  "crete": 5448,
  "cretion": 16338,
  "crets": 27623,
  "cribed": 24931,
  "crime": 34745,
  "criminals": 45108,
  "cript": 4818,
  "cription": 14920,
  "criptions": 17909,
  "crit": 14871,
  "critical": 24320,
  "cro": 22340,
  "crop": 23052,
  "cross": 16325,
  "crow": 22309,
  "cru": 43622,
  "crum": 47328,
  "crypt": 36438,
  "cs": 5296,
  "css": 27193,
  "csv": 8699,
  "ct": 296,
  "ctic": 6829,
  "ctica": 16962,
  "ctime": 46614,
  "ction": 557,
  "ctions": 2502,
  "ctive": 7888,
  "ctl": 46262,
  "ctomy": 35565,
  "ctools": 32850,
  "ctor": 4862,
  "ctors": 9099,
  "ctory": 18450,
  "ctrl": 39673,
  "ctu": 10737,
  "ctuaries": 41752,
  "ctx": 14645,
  "cu": 32579,
  "cub": 41996,
  "cube": 36159,
  "cuda": 17980,
  "cue": 27883,
  "cul": 1788,
  "cula": 41316,
  "cular": 4633,
  "culation": 34928,
  "cule": 9625,
  "cules": 6355,
  "culosis": 16881,
  "cult": 8987,
  "cultural": 11875,
  "culture": 24754,
  "culus": 46989,
  "cum": 25101,
  "cumin": 34427,
  "cup": 28627,
  "cur": 1855,
  "curities": 21510,
  "curity": 2895,
  "curr": 30885,
  "currency": 33504,
  "current": 7378,
  "currently": 37105,
  "curricular": 24572,
  "curs": 15854,
  "cursive": 47235,
  "cursor": 13733,
  "cursors": 31959,
  "curve": 29000,
  "cus": 31783,
  "cussions": 29370,
  "custom": 15790,
  "customer": 31678,
  "cut": 8692,
  "cutaneous": 36914,
  "cutoff": 48359,
  "cuts": 22591,
  "cutta": 41614,
  "cutting": 32274,
  "cv": 15798,
  "cwd": 31117,
  "cx": 48845,
  "cy": 873,
  "cycl": 6555,
  "cycle": 12022,
  "cycled": 43023,
  "cycles": 30397,
  "cycling": 22249,
  "cyclop": 8644,
  "cyclopedia": 10184,
  "cyl": 38816,
  "cyst": 44696,
  "cystic": 43518,
  "cz": 32737,
  "d": 84,
  "dB": 41039,
  "dL": 35943,
  "da": 4933,
  "dad": 28539,
  "dag": 46124,
  "daily": 33521,
  "dain": 46823,
  "dal": 21661,
  "dala": 30632,
  "dale": 22821,
  "dam": 14151,
  "dan": 34977,
  "dar": 31368,
  "dard": 34510,
  "dark": 23743,
  "das": 40788,
  "dash": 32641,
  "dat": 4498,
  "data": 1824,
  "database": 19800,
  "dataclass": 42751,
  "dataframe": 39605,
  "dataloader": 48087,
  "datas": 47402,
  "dataset": 9551,
  "datasets": 26795,
  "date": 2759,
  "dated": 10525,
  "dates": 19154,
  "datetime": 11808,
  "dating": 39559,
  "daughter": 35054,
  "day": 1222,
  "days": 13680,
  "db": 4868,
  "dc": 20969,
  "dd": 2977,
  "dden": 5745,
  "de": 1018,
  "dead": 23496,
  "deal": 32852,
  "death": 27822,
  "deb": 42824,
  "debug": 10004,
  "dec": 10067,
  "decay": 30047,
  "decimal": 46255,
  "decision": 43066,
  "deck": 49044,
  "decl": 27474,
  "decode": 16333,
  "decoder": 33482,
  "decor": 30006,
  "decre": 46791,
  "ded": 4680,
  "deen": 43556,
  "deep": 19422,
  "deepcopy": 37298,
  "def": 1604,
  "default": 6518,
  "defaults": 32979,
  "defense": 30015,
  "define": 23405,
  "defined": 16571,
  "defining": 45649,
  "definition": 21280,
  "definitions": 44872,
  "deg": 13288,
  "degree": 18627,
  "degrees": 39161,
  "dehy": 22699,
  "dehyde": 24014,
  "del": 11074,
  "delay": 22711,
  "delete": 10334,
  "deleted": 38725,
  "deletion": 31744,
  "delivery": 31625,
  "deliverystream": 45139,
  "delta": 19841,
  "dem": 6925,
  "demand": 30191,
  "demo": 44056,
  "den": 5629,
  "denom": 46736,
  "dense": 25146,
  "density": 22701,
  "dent": 5058,
  "dep": 6617,
  "department": 46040,
  "depend": 24207,
  "dependence": 32299,
  "dependencies": 36120,
  "dependency": 44024,
  "dependent": 15566,
  "depending": 37953,
  "deploy": 39138,
  "deployment": 41953,
  "depth": 9920,
  "der": 1223,
  "dera": 41641,
  "dered": 6605,
  "deredDict": 33090,
  "derived": 22148,
  "derr": 19859,
  "ders": 11503,
  "des": 4691,
  "desc": 12390,
  "describe": 48693,
  "description": 10079,
  "descriptor": 40054,
  "design": 19338,
  "designed": 24038,
  "dess": 11411,
  "dest": 12278,
  "destination": 29794,
  "destroy": 31488,
  "destructive": 45582,
  "det": 6836,
  "detach": 37423,
  "detail": 25770,
  "details": 21322,
  "detect": 42364,
  "detection": 35458,
  "detector": 47427,
  "determ": 15611,
  "determination": 21440,
  "determined": 45854,
  "dev": 6301,
  "develop": 11088,
  "developed": 21283,
  "development": 22563,
  "developmental": 42636,
  "device": 9592,
  "devices": 31169,
  "df": 3492,
  "dfs": 46600,
  "dfunding": 43561,
  "dh": 29693,
  "di": 8115,
  "dia": 35359,
  "diabetes": 44204,
  "diag": 39206,
  "diagn": 22308,
  "dial": 37717,
  "dialog": 44940,
  "diameter": 49029,
  "dic": 29875,
  "dict": 3411,
  "diction": 12836,
  "dictionary": 28340,
  "dicts": 46733,
  "did": 29956,
  "die": 27765,
  "died": 45324,
  "diff": 9880,
  "difference": 37767,
  "different": 27569,
  "difficult": 44121,
  "dig": 10547,
  "digest": 35198,
  "digit": 23141,
  "digital": 26127,
  "digits": 37307,
  "dim": 5039,
  "dimension": 33317,
  "dimensional": 10266,
  "dimensions": 38930,
  "dims": 21122,
  "din": 15151,
  "dinand": 28086,
  "ding": 3443,
  "dings": 19463,
  "dip": 46534,
  "dir": 3469,
  "direct": 9306,
  "directed": 26869,
  "direction": 20086,
  "director": 47461,
  "directory": 15636,
  "dirname": 18228,
  "dirs": 31299,
  "dis": 4371,
  "disable": 38928,
  "disabled": 34601,
  "disc": 12367,
  "disciplinary": 12881,
  "discipline": 36900,
  "discord": 43961,
  "discovery": 20003,
  "discrim": 47879,
  "discrimination": 40320,
  "dise": 29062,
  "disease": 35506,
  "dish": 21490,
  "disk": 29987,
  "display": 15324,
  "diss": 45832,
  "dist": 8184,
  "distance": 12179,
  "distances": 42723,
  "distributed": 45975,
  "distribution": 32990,
  "district": 42937,
  "dit": 18203,
  "dition": 1084,
  "ditional": 5959,
  "ditionally": 3789,
  "ditions": 1615,
  "div": 10014,
  "diversity": 41647,
  "divide": 49099,
  "divided": 33970,
  "division": 29645,
  "divisions": 40888,
  "django": 15072,
  "dk": 30641,
  "dl": 20044,
  "dm": 17437,
  "dn": 25125,
  "dns": 44819,
  "do": 4326,
  "doc": 5735,
  "docker": 36015,
  "docs": 14657,
  "doctor": 21869,
  "doctoral": 26082,
  "document": 17483,
  "documented": 45197,
  "documents": 34643,
  "does": 26802,
  "dog": 22676,
  "dogs": 48804,
  "doi": 11806,
  "doing": 29246,
  "dollar": 36386,
  "dom": 2620,
  "domain": 14587,
  "domains": 45865,
  "dominal": 12672,
  "dominated": 33261,
  "doms": 19935,
  "don": 12420,
  "done": 22744,
  "door": 8240,
  "doors": 12304,
  "dor": 40836,
  "dos": 45963,
  "dose": 17470,
  "dot": 11804,
  "dou": 38288,
  "double": 21414,
  "dough": 38731,
  "down": 4488,
  "download": 18595,
  "downs": 28216,
  "dp": 24901,
  "dprinting": 48674,
  "dq": 43683,
  "dr": 6931,
  "dra": 17847,
  "draft": 47921,
  "drained": 36849,
  "draw": 7254,
  "drawal": 47135,
  "drawn": 20497,
  "dream": 43363,
  "drew": 29224,
  "dried": 46125,
  "drive": 29230,
  "driven": 13729,
  "driver": 17531,
  "driving": 25377,
  "dro": 36230,
  "drop": 9467,
  "dropout": 26154,
  "drops": 47352,
  "drug": 28836,
  "dry": 26933,
  "ds": 931,
  "dst": 28453,
  "dt": 14149,
  "dtype": 16659,
  "du": 496,
  "dual": 45328,
  "duate": 9078,
  "duc": 3029,
  "ducer": 41595,
  "ducers": 37293,
  "ducive": 19825,
  "duct": 1922,
  "duction": 9181,
  "ductor": 16449,
  "ductors": 36485,
  "due": 16395,
  "duino": 21523,
  "dule": 6449,
  "dummy": 31646,
  "dump": 19488,
  "dumps": 19567,
  "dup": 18448,
  "duration": 20852,
  "during": 33501,
  "dust": 39016,
  "duty": 33897,
  "dv": 46154,
  "dw": 44312,
  "dwell": 43648,
  "dwelling": 42454,
  "dx": 19597,
  "dy": 13285,
  "dynamic": 30394,
  "e": 85,
  "ea": 22125,
  "each": 22386,
  "ead": 1337,
  "eal": 6255,
  "ealous": 20690,
  "eals": 36005,
  "ean": 18737,
  "ear": 517,
  "earance": 32435,
  "earch": 2315,
  "earcher": 39194,
  "earchers": 7308,
  "eared": 13479,
  "earing": 7563,
  "early": 12305,
  "earned": 42341,
  "ears": 5674,
  "earth": 22480,
  "eas": 25380,
  "east": 20536,
  "eastern": 36256,
  "easy": 40207,
  "eat": 32699,
  "eating": 25811,
  "eb": 2713,
  "ebra": 23129,
  "ebted": 39607,
  "ec": 1159,
  "eca": 24875,
  "ecal": 41794,
  "ecause": 3420,
  "ecd": 22181,
  "ecess": 18499,
  "ech": 3576,
  "eches": 16818,
  "echo": 31321,
  "ecia": 38107,
  "ecks": 41907,
  "ecl": 35426,
  "eclampsia": 42120,
  "ecological": 41046,
  "ecology": 43536,
  "econom": 27581,
  "economic": 15245,
  "economics": 42799,
  "ecost": 33025,
  "ecs": 37420,
  "ect": 374,
  "ectable": 49151,
  "ectar": 20059,
  "ected": 1490,
  "ectin": 31452,
  "ecting": 18489,
  "ection": 976,
  "ections": 24568,
  "ective": 22496,
  "ectomy": 25278,
  "ector": 10287,
  "ectoral": 43533,
  "ectors": 34240,
  "ects": 29820,
  "ed": 277,
  "eda": 18796,
  "edar": 23310,
  "eday": 12781,
  "ede": 16243,
  "eded": 14485,
  "edema": 43937,
  "eder": 35602,
  "ederal": 3094,
  "edes": 23275,
  "edge": 7277,
  "edged": 24844,
  "edges": 17464,
  "edi": 2144,
  "edia": 4091,
  "edias": 38652,
  "ediat": 7517,
  "ediatr": 42128,
  "ediatric": 9716,
  "ediatrics": 17724,
  "edic": 15092,
  "edical": 23433,
  "edience": 16753,
  "edient": 38537,
  "edies": 12854,
  "eding": 4780,
  "edipus": 39350,
  "edit": 16367,
  "edited": 46330,
  "editing": 46553,
  "editor": 30078,
  "edo": 32243,
  "edom": 4045,
  "eds": 2223,
  "edu": 8332,
  "educ": 14703,
  "educated": 30738,
  "education": 23959,
  "educational": 46414,
  "educt": 36687,
  "edy": 6879,
  "ee": 1992,
  "eed": 2589,
  "eele": 48146,
  "eem": 9790,
  "een": 7773,
  "eenth": 7375,
  "eeper": 37919,
  "eer": 5551,
  "eered": 22094,
  "eering": 12212,
  "eers": 7637,
  "ees": 4123,
  "eeze": 14845,
  "ef": 721,
  "efer": 43582,
  "eff": 16373,
  "effect": 13342,
  "effective": 11773,
  "effectiveness": 39233,
  "effects": 29334,
  "effic": 12529,
  "efficacy": 35107,
  "efficiency": 31095,
  "efficient": 9863,
  "efficients": 18888,
  "efined": 21656,
  "efit": 25892,
  "efits": 11532,
  "efore": 3719,
  "eforestation": 46338,
  "eft": 14146,
  "eful": 10332,
  "efully": 13077,
  "eg": 1126,
  "ega": 9005,
  "egal": 31066,
  "eger": 34731,
  "egg": 41481,
  "egin": 8245,
  "egrad": 23181,
  "egradable": 26472,
  "egu": 9503,
  "egy": 41484,
  "egypt": 45875,
  "eh": 38922,
  "ei": 36791,
  "eight": 24258,
  "ein": 12845,
  "either": 27189,
  "ek": 1846,
  "eks": 3504,
  "el": 299,
  "ela": 10945,
  "elage": 35494,
  "eland": 12880,
  "elands": 47698,
  "elastic": 33086,
  "elcome": 4268,
  "eld": 15445,
  "ele": 2625,
  "elect": 11209,
  "elected": 44332,
  "election": 34183,
  "electric": 18901,
  "electronic": 48522,
  "eled": 21097,
  "elem": 35500,
  "element": 13179,
  "elements": 22224,
  "eler": 46361,
  "elesc": 8256,
  "elescope": 19377,
  "eless": 5637,
  "elessness": 46089,
  "elf": 482,
  "elfare": 8262,
  "elfth": 28185,
  "eli": 5156,
  "elia": 21327,
  "eliac": 22151,
  "elian": 31647,
  "elic": 35611,
  "elif": 22082,
  "elihood": 7066,
  "elike": 42201,
  "elim": 44932,
  "elin": 32074,
  "eline": 4374,
  "elines": 3918,
  "eliness": 20315,
  "eling": 9660,
  "elior": 35192,
  "elist": 30968,
  "elitis": 45428,
  "elius": 38709,
  "elivery": 19405,
  "ell": 478,
  "ella": 7129,
  "ellan": 42106,
  "ellaneous": 37774,
  "ellant": 39413,
  "ellar": 14263,
  "ellate": 34968,
  "ellation": 38329,
  "elle": 15436,
  "ellect": 5244,
  "ellectual": 22653,
  "elled": 6259,
  "eller": 9803,
  "ellers": 16549,
  "ellery": 38663,
  "elles": 23280,
  "elli": 17927,
  "ellig": 3454,
  "elling": 2132,
  "ellings": 42474,
  "ellington": 29406,
  "ellite": 21211,
  "ellites": 43757,
  "ello": 11222,
  "ellow": 3164,
  "ellows": 22869,
  "ells": 7947,
  "ellular": 30163,
  "ellum": 42534,
  "elly": 11052,
  "elman": 39754,
  "elo": 35304,
  "elona": 28945,
  "elong": 14408,
  "elope": 34638,
  "els": 1025,
  "else": 13830,
  "elsh": 17001,
  "elsius": 19398,
  "elson": 13854,
  "elt": 2781,
  "elta": 9311,
  "eltic": 19508,
  "elve": 9750,
  "ely": 572,
  "em": 391,
  "ema": 8950,
  "emade": 18433,
  "email": 10349,
  "emaker": 43685,
  "eman": 15101,
  "emann": 23956,
  "emat": 15519,
  "ematic": 31802,
  "ematics": 47686,
  "emb": 8701,
  "embed": 13252,
  "embedding": 27841,
  "embeddings": 34287,
  "ember": 1548,
  "embered": 12735,
  "embourg": 37375,
  "embrance": 44164,
  "eme": 30065,
  "emed": 12573,
  "emen": 15624,
  "ement": 46155,
  "emerg": 28703,
  "emes": 37448,
  "emet": 13211,
  "emeter": 31909,
  "emeteries": 32550,
  "emetery": 13556,
  "emi": 47836,
  "emia": 8429,
  "emic": 4968,
  "emics": 31247,
  "eming": 24797,
  "emit": 41846,
  "emon": 16590,
  "emotional": 31118,
  "emp": 20547,
  "emphas": 37082,
  "empl": 4762,
  "emplate": 8475,
  "employ": 37846,
  "employed": 47905,
  "employment": 32474,
  "empor": 19439,
  "emporal": 45491,
  "emporary": 3304,
  "empt": 2623,
  "emption": 15643,
  "emptive": 43191,
  "empty": 16451,
  "ems": 1687,
  "emy": 33153,
  "en": 264,
  "ena": 6743,
  "enable": 19276,
  "enabled": 19370,
  "enact": 41059,
  "enaissance": 11664,
  "ename": 4236,
  "enames": 27168,
  "enance": 26254,
  "enario": 24687,
  "enarios": 48460,
  "enary": 29191,
  "enas": 42254,
  "enberg": 26172,
  "enburg": 28837,
  "enc": 2308,
  "ence": 535,
  "enced": 2866,
  "encephal": 46317,
  "encer": 22956,
  "encers": 39182,
  "ences": 1259,
  "ench": 24445,
  "enching": 42143,
  "encia": 32716,
  "encies": 3233,
  "encil": 29138,
  "encing": 4466,
  "encode": 16446,
  "encoded": 35572,
  "encoder": 23444,
  "encoding": 26468,
  "ency": 1254,
  "encycl": 43845,
  "end": 486,
  "enda": 11142,
  "endar": 9300,
  "endas": 28351,
  "ende": 32957,
  "ended": 1753,
  "ender": 2461,
  "endered": 24682,
  "endering": 46497,
  "enders": 10841,
  "ending": 1719,
  "endium": 44007,
  "endix": 21676,
  "endment": 9841,
  "endo": 37945,
  "endor": 35193,
  "endpoint": 26865,
  "ends": 1390,
  "endswith": 27061,
  "ene": 2230,
  "ened": 2302,
  "ener": 12051,
  "energy": 11936,
  "eners": 20131,
  "enes": 23822,
  "eness": 8051,
  "enet": 29179,
  "enez": 19312,
  "enfranch": 41745,
  "eng": 1059,
  "enge": 3326,
  "enged": 45398,
  "enger": 9333,
  "engers": 10869,
  "enges": 12058,
  "engine": 11943,
  "engineering": 24717,
  "enging": 27741,
  "english": 40019,
  "ength": 2512,
  "engths": 10365,
  "engu": 14083,
  "engue": 22725,
  "enguin": 20227,
  "enguins": 24860,
  "enh": 15413,
  "enhanced": 42889,
  "enheim": 45013,
  "enhower": 29413,
  "eni": 44823,
  "enia": 32042,
  "enic": 17604,
  "enics": 36605,
  "ening": 1994,
  "enital": 41520,
  "enium": 16620,
  "enn": 2214,
  "enna": 13451,
  "enne": 25632,
  "ennel": 35382,
  "ennes": 40761,
  "ennial": 19963,
  "ennis": 15084,
  "ennon": 25121,
  "enny": 10298,
  "eno": 20507,
  "enoid": 38275,
  "enoids": 37720,
  "enol": 42864,
  "enos": 27432,
  "enough": 46535,
  "ens": 581,
  "ensation": 18933,
  "ensch": 40408,
  "ense": 1281,
  "ensed": 8680,
  "ensely": 28287,
  "ensen": 24275,
  "enser": 28213,
  "enses": 4883,
  "ensible": 33607,
  "ensibly": 40091,
  "ensin": 48684,
  "ensing": 12689,
  "ension": 2868,
  "ensional": 8226,
  "ensions": 4717,
  "ensis": 15484,
  "ensitive": 27744,
  "ensitivity": 29160,
  "ensity": 3883,
  "ensive": 2757,
  "ensively": 13562,
  "enson": 21063,
  "ensor": 5275,
  "ensors": 39064,
  "ensory": 34619,
  "enstein": 27544,
  "ensual": 46755,
  "ensure": 30604,
  "ensus": 5977,
  "ent": 293,
  "enta": 32063,
  "ental": 1417,
  "entanyl": 43514,
  "entary": 22236,
  "ente": 25583,
  "ented": 6574,
  "enter": 9294,
  "enters": 46096,
  "entery": 46360,
  "enth": 4807,
  "enthal": 48920,
  "enthic": 44118,
  "enti": 10142,
  "ential": 952,
  "entially": 12339,
  "entials": 13051,
  "enties": 38468,
  "entieth": 11315,
  "entimes": 35510,
  "entin": 43372,
  "enting": 43125,
  "ention": 1448,
  "entional": 28838,
  "entionally": 32310,
  "entioned": 47766,
  "entions": 45965,
  "entities": 41388,
  "entity": 20065,
  "ently": 1434,
  "enton": 44629,
  "entric": 24633,
  "entries": 27457,
  "entropy": 29861,
  "entry": 10842,
  "ents": 547,
  "enty": 4293,
  "enum": 19264,
  "env": 7869,
  "environ": 18358,
  "environment": 17962,
  "environmental": 39120,
  "enz": 20411,
  "enza": 9998,
  "enzie": 31559,
  "enzyme": 45645,
  "eo": 35536,
  "eor": 10056,
  "eous": 13348,
  "ep": 534,
  "epend": 2323,
  "ependence": 10955,
  "ependency": 39219,
  "ependent": 9121,
  "eper": 3880,
  "eph": 26417,
  "ephal": 30739,
  "epid": 31515,
  "eping": 8602,
  "episode": 37236,
  "epoch": 12640,
  "epochs": 26721,
  "eprint": 16988,
  "eps": 11726,
  "epsilon": 35941,
  "ept": 28574,
  "eq": 20601,
  "equ": 2682,
  "equal": 11815,
  "equipped": 32750,
  "equivalent": 45133,
  "er": 259,
  "era": 4101,
  "erable": 18542,
  "eracy": 23666,
  "eral": 1555,
  "erala": 31017,
  "erald": 14410,
  "erally": 9958,
  "erals": 6152,
  "eram": 11999,
  "erary": 43342,
  "eras": 7640,
  "erate": 3194,
  "erated": 6593,
  "erately": 24515,
  "erates": 19989,
  "erating": 14693,
  "eration": 2497,
  "erations": 27957,
  "erator": 9697,
  "erators": 21844,
  "erb": 9753,
  "erc": 1518,
  "ercase": 36906,
  "erce": 14407,
  "ercise": 11533,
  "ercury": 9532,
  "erd": 33536,
  "ere": 518,
  "ered": 1283,
  "erella": 45696,
  "eren": 10251,
  "erence": 2095,
  "erenced": 41680,
  "erences": 3649,
  "erencing": 28313,
  "erent": 6202,
  "erential": 26244,
  "erer": 15897,
  "erers": 17999,
  "erest": 1279,
  "eret": 46267,
  "erey": 39506,
  "erg": 881,
  "ergarten": 13584,
  "erge": 9267,
  "erget": 17212,
  "ergic": 22229,
  "ergies": 13893,
  "erglass": 40469,
  "ergy": 1226,
  "eri": 33147,
  "eria": 4920,
  "erial": 13148,
  "erialize": 43264,
  "erian": 30254,
  "eric": 11550,
  "erica": 28762,
  "erical": 34538,
  "erican": 18197,
  "erick": 48334,
  "erie": 25416,
  "eries": 7801,
  "ering": 1136,
  "erion": 17002,
  "erior": 7337,
  "erk": 15366,
  "erm": 833,
  "erma": 46446,
  "ermal": 30586,
  "erman": 9277,
  "ermann": 42125,
  "ermat": 12190,
  "ermint": 42984,
  "ermis": 32770,
  "ermo": 44791,
  "ermost": 26309,
  "ern": 869,
  "ernacle": 37981,
  "ername": 2709,
  "ernel": 8558,
  "ernels": 28698,
  "erner": 30142,
  "erness": 10494,
  "erning": 45038,
  "erno": 42489,
  "erns": 19374,
  "ero": 3955,
  "erobic": 21485,
  "eroids": 21098,
  "eron": 15183,
  "eronomy": 33404,
  "eroon": 34734,
  "eros": 15777,
  "erosene": 44387,
  "erous": 2442,
  "eroy": 45229,
  "err": 1571,
  "errals": 35636,
  "erre": 37040,
  "erred": 17558,
  "erring": 8105,
  "error": 2742,
  "errors": 17407,
  "ers": 366,
  "ersen": 34281,
  "ership": 13550,
  "ersion": 8684,
  "erson": 3067,
  "ersonal": 6726,
  "ert": 730,
  "ertain": 1327,
  "ertation": 16182,
  "ertations": 41424,
  "ertiary": 25153,
  "ertical": 27346,
  "ertil": 25600,
  "ertile": 39415,
  "ertility": 18577,
  "ertime": 40409,
  "erto": 15225,
  "erton": 27296,
  "ertools": 32000,
  "erty": 9363,
  "erv": 684,
  "ervation": 2903,
  "ervative": 47516,
  "erve": 2459,
  "erved": 4839,
  "erver": 10740,
  "ervers": 17361,
  "erves": 11928,
  "ervice": 7852,
  "erville": 43223,
  "erving": 6068,
  "ervoir": 34778,
  "ery": 1467,
  "es": 266,
  "esame": 27629,
  "esan": 43109,
  "esar": 16265,
  "esare": 37351,
  "esarean": 43775,
  "esc": 2599,
  "escape": 41475,
  "escence": 40456,
  "escent": 26620,
  "esch": 31939,
  "escription": 6904,
  "escue": 48228,
  "ese": 2796,
  "esh": 6509,
  "eshoe": 42588,
  "esi": 43549,
  "esian": 16396,
  "esides": 8191,
  "esis": 7650,
  "esity": 6706,
  "esium": 10509,
  "esley": 46440,
  "esome": 14143,
  "esoph": 33860,
  "esophageal": 41757,
  "esp": 39547,
  "especially": 14351,
  "esque": 38326,
  "ess": 362,
  "essa": 39226,
  "essage": 5126,
  "esse": 46400,
  "essed": 19465,
  "essee": 13814,
  "essel": 32368,
  "essential": 26173,
  "essert": 19029,
  "esses": 32049,
  "essim": 31434,
  "essing": 28657,
  "ession": 3209,
  "essional": 11252,
  "essionals": 28480,
  "essions": 6664,
  "essive": 27921,
  "essment": 20896,
  "esson": 7153,
  "essor": 5374,
  "essori": 23485,
  "essors": 39051,
  "est": 381,
  "esta": 34318,
  "estab": 15301,
  "establish": 30834,
  "established": 21057,
  "estamp": 12042,
  "este": 39490,
  "estead": 25931,
  "ested": 5481,
  "esteem": 13060,
  "ester": 6062,
  "esterday": 15955,
  "estern": 2870,
  "esterone": 32385,
  "esters": 20433,
  "esthesia": 32164,
  "esthetic": 24809,
  "esthetics": 44557,
  "estial": 16696,
  "estic": 3721,
  "estim": 34792,
  "estimate": 46787,
  "estinal": 13728,
  "estine": 32505,
  "esting": 7010,
  "estion": 5160,
  "estions": 8181,
  "estock": 9766,
  "eston": 23550,
  "estone": 10885,
  "estones": 16825,
  "estown": 34556,
  "estrian": 39311,
  "estrogen": 47489,
  "estry": 13612,
  "ests": 3916,
  "esty": 14077,
  "estyle": 6052,
  "estyles": 17766,
  "esus": 21650,
  "esville": 42373,
  "et": 305,
  "eta": 8810,
  "etal": 23014,
  "etary": 8730,
  "etc": 23980,
  "etch": 7668,
  "ete": 28394,
  "eted": 11166,
  "eter": 1932,
  "eterm": 19117,
  "etermined": 24454,
  "eters": 2922,
  "etes": 31961,
  "eth": 734,
  "ethe": 9540,
  "etheless": 11863,
  "ether": 4470,
  "etheus": 41880,
  "ethical": 22129,
  "ethics": 40659,
  "ething": 1432,
  "ethnic": 30633,
  "ethod": 1186,
  "ethoven": 29870,
  "ethyl": 15280,
  "ethylene": 28240,
  "etic": 1989,
  "etically": 11624,
  "etics": 7735,
  "eties": 7405,
  "etime": 4394,
  "etimes": 1906,
  "etin": 47123,
  "eting": 9157,
  "eto": 13275,
  "eton": 14991,
  "etooth": 25082,
  "etra": 43184,
  "etric": 15926,
  "etrics": 38418,
  "etry": 12127,
  "ets": 1175,
  "ett": 7459,
  "etta": 22569,
  "ette": 7103,
  "ettes": 22680,
  "etti": 27909,
  "etting": 38977,
  "etts": 9372,
  "etus": 22992,
  "ety": 997,
  "etyl": 26874,
  "etype": 41832,
  "etz": 26840,
  "eu": 13306,
  "eur": 17476,
  "ev": 3345,
  "eval": 9719,
  "evaluate": 25791,
  "evaluation": 31320,
  "evelop": 40755,
  "eveloped": 47003,
  "even": 9934,
  "event": 9586,
  "events": 19020,
  "ever": 872,
  "everal": 7570,
  "everse": 31307,
  "every": 18818,
  "everything": 44105,
  "evidence": 42477,
  "evident": 46115,
  "evil": 38940,
  "eville": 39991,
  "evin": 21137,
  "evol": 16606,
  "evolution": 40372,
  "evolving": 24186,
  "ew": 846,
  "eware": 44397,
  "eworthy": 25573,
  "ex": 888,
  "exact": 45386,
  "exam": 34060,
  "examination": 47474,
  "example": 7434,
  "examples": 25406,
  "exc": 18914,
  "excel": 40094,
  "except": 14238,
  "exception": 18581,
  "exceptions": 24685,
  "exchange": 37362,
  "exclude": 35744,
  "excluding": 49070,
  "exe": 29687,
  "exec": 9234,
  "execute": 13984,
  "execution": 38198,
  "exercise": 44955,
  "exist": 9021,
  "existence": 43694,
  "existent": 33547,
  "existing": 16877,
  "exists": 12566,
  "exit": 14334,
  "exp": 5812,
  "expand": 19327,
  "expect": 33750,
  "expected": 6060,
  "expensive": 17718,
  "exper": 13426,
  "experience": 39517,
  "experienced": 37056,
  "experiment": 27762,
  "experimental": 45922,
  "expert": 41392,
  "expl": 13403,
  "explan": 47870,
  "export": 24127,
  "exposed": 46913,
  "exposure": 39535,
  "expr": 14554,
  "expression": 17382,
  "ext": 1527,
  "extend": 19237,
  "extended": 44366,
  "extension": 25563,
  "extensions": 35756,
  "external": 26583,
  "extra": 20082,
  "extract": 18993,
  "ey": 2598,
  "eye": 20422,
  "eyed": 27693,
  "eyer": 25390,
  "eylon": 46066,
  "ez": 12421,
  "eze": 33428,
  "ezers": 47776,
  "ezing": 20941,
  "ezvous": 45938,
  "f": 86,
  "fa": 12155,
  "fac": 23730,
  "face": 1803,
  "facebook": 46208,
  "faced": 33114,
  "faces": 5305,
  "facing": 27241,
  "fact": 2160,
  "faction": 24380,
  "factor": 15255,
  "factors": 37224,
  "factory": 14996,
  "facts": 24504,
  "fail": 24766,
  "failed": 30364,
  "failure": 33330,
  "fair": 29389,
  "faiss": 38451,
  "faith": 40290,
  "fake": 20970,
  "fal": 44313,
  "fall": 10458,
  "falls": 17435,
  "false": 21642,
  "fam": 11639,
  "families": 41857,
  "family": 16703,
  "famous": 46649,
  "fan": 31323,
  "far": 21900,
  "fare": 10161,
  "farm": 31950,
  "fashion": 29554,
  "fashioned": 33574,
  "fast": 7987,
  "fastq": 36913,
  "fat": 14200,
  "father": 13069,
  "fathers": 45724,
  "fault": 46571,
  "fax": 39780,
  "fb": 35159,
  "fc": 17730,
  "fd": 27483,
  "fe": 4565,
  "feat": 29019,
  "feats": 40358,
  "feature": 12839,
  "features": 11428,
  "fect": 2877,
  "fection": 40861,
  "fecture": 38491,
  "fed": 16308,
  "fee": 43901,
  "feed": 8579,
  "feedback": 25809,
  "feeding": 12527,
  "feel": 34858,
  "feet": 32997,
  "feit": 33572,
  "fel": 34520,
  "feld": 25678,
  "felt": 34218,
  "fem": 22045,
  "female": 32032,
  "fen": 49039,
  "fer": 2344,
  "ferably": 43259,
  "ference": 17788,
  "ferences": 43600,
  "feres": 32874,
  "ferred": 28487,
  "fet": 35725,
  "fetch": 20156,
  "fetchall": 48069,
  "fetched": 49037,
  "few": 34343,
  "ff": 484,
  "ffe": 11112,
  "ffect": 4044,
  "ffective": 7385,
  "ffer": 39505,
  "ffes": 37353,
  "ffff": 34712,
  "ffic": 2046,
  "fficiency": 16070,
  "fficient": 3574,
  "ffield": 36233,
  "ffiti": 27666,
  "fft": 30822,
  "ffy": 28142,
  "fg": 28393,
  "fh": 45833,
  "fi": 16775,
  "fib": 38572,
  "fiber": 38796,
  "fiction": 13345,
  "fid": 47009,
  "fied": 31886,
  "field": 4385,
  "fields": 9063,
  "fif": 26184,
  "fifth": 36663,
  "fig": 2615,
  "fight": 41592,
  "fighting": 31461,
  "figsize": 34921,
  "figure": 15123,
  "fil": 2808,
  "file": 2153,
  "filename": 5805,
  "filenames": 44423,
  "filepath": 25081,
  "files": 7942,
  "fill": 7533,
  "filled": 18045,
  "filling": 44161,
  "fills": 24008,
  "film": 22497,
  "films": 41019,
  "filter": 8565,
  "filtered": 30292,
  "filters": 19958,
  "fin": 14040,
  "final": 17254,
  "financial": 41297,
  "find": 7647,
  "findall": 37150,
  "finder": 31163,
  "finding": 38443,
  "fine": 38066,
  "fing": 40348,
  "finger": 36783,
  "finish": 47137,
  "finished": 34192,
  "fir": 42123,
  "fire": 10010,
  "fired": 24549,
  "firehose": 44812,
  "fires": 17879,
  "firm": 48675,
  "first": 7298,
  "firstname": 46503,
  "firstsum": 46687,
  "fish": 7442,
  "fishing": 30612,
  "fit": 5494,
  "fits": 20971,
  "fitting": 22866,
  "five": 14013,
  "fix": 8894,
  "fixed": 26487,
  "fixture": 23131,
  "fl": 2354,
  "flag": 17631,
  "flags": 20477,
  "flamm": 10087,
  "flash": 46518,
  "flat": 16081,
  "flation": 27420,
  "flatten": 27097,
  "flav": 38756,
  "fledged": 46419,
  "flex": 38518,
  "flies": 12361,
  "flight": 21245,
  "flip": 33591,
  "flix": 33131,
  "float": 6205,
  "floating": 49127,
  "floor": 26919,
  "flow": 4620,
  "flower": 16537,
  "flowers": 25266,
  "flows": 35396,
  "flu": 15860,
  "fluid": 29308,
  "flush": 32976,
  "flux": 33047,
  "fly": 11317,
  "flying": 49059,
  "fm": 34481,
  "fmt": 33375,
  "fn": 7853,
  "fname": 24031,
  "fo": 30138,
  "focus": 19333,
  "focused": 26041,
  "foil": 45668,
  "fol": 9360,
  "fold": 7177,
  "folded": 48282,
  "folder": 12145,
  "folio": 14982,
  "folios": 34144,
  "folk": 22662,
  "follow": 21162,
  "following": 42248,
  "font": 17617,
  "fonts": 40132,
  "foo": 15236,
  "food": 14904,
  "foods": 42013,
  "foot": 9688,
  "footed": 43008,
  "for": 1710,
  "force": 4021,
  "forced": 36267,
  "forcement": 7389,
  "forces": 46889,
  "forcing": 48789,
  "ford": 4157,
  "fore": 892,
  "foreign": 39066,
  "forest": 13470,
  "forestry": 41458,
  "forests": 27970,
  "forget": 20262,
  "forgettable": 22286,
  "form": 584,
  "formal": 26367,
  "formance": 10914,
  "format": 3477,
  "formatics": 26199,
  "formation": 972,
  "formations": 45346,
  "formats": 39916,
  "formatted": 45026,
  "formatter": 41765,
  "formed": 10426,
  "former": 20714,
  "formerly": 34795,
  "forming": 12474,
  "forms": 11505,
  "formula": 40174,
  "fort": 3032,
  "forth": 29044,
  "forts": 41931,
  "fortunately": 6540,
  "forum": 45806,
  "forward": 10403,
  "found": 8642,
  "founded": 33278,
  "founder": 29376,
  "foundland": 30854,
  "four": 13996,
  "fourth": 38525,
  "fowl": 35263,
  "fox": 29343,
  "fp": 22776,
  "fps": 48827,
  "fr": 22106,
  "fra": 36147,
  "frac": 18169,
  "fraction": 40274,
  "frag": 28082,
  "frame": 6794,
  "frames": 19489,
  "framework": 27194,
  "franch": 33659,
  "fre": 29415,
  "fred": 14950,
  "free": 5725,
  "freedom": 46713,
  "freeze": 44100,
  "freq": 20991,
  "frequency": 17344,
  "fresh": 44677,
  "frey": 45300,
  "fri": 43715,
  "fried": 28874,
  "friend": 8100,
  "friendly": 9263,
  "friends": 35166,
  "fro": 32902,
  "from": 1455,
  "front": 10826,
  "frozen": 45033,
  "fruit": 25403,
  "fs": 9269,
  "ft": 926,
  "ften": 18734,
  "fter": 807,
  "fters": 41210,
  "ftime": 25304,
  "fting": 9634,
  "ftp": 31166,
  "fts": 7526,
  "fty": 32843,
  "fu": 12809,
  "fuel": 18977,
  "fuels": 23363,
  "ful": 739,
  "full": 11069,
  "fully": 2338,
  "fulness": 6986,
  "fun": 7312,
  "func": 10005,
  "function": 6607,
  "functional": 23614,
  "functioning": 48089,
  "functions": 22942,
  "fund": 15980,
  "funded": 22645,
  "fur": 36638,
  "furt": 31761,
  "fus": 49011,
  "fusion": 41174,
  "fut": 45498,
  "future": 15899,
  "fw": 37368,
  "fx": 31392,
  "fy": 37501,
  "g": 87,
  "ga": 8662,
  "gaard": 45634,
  "gage": 17495,
  "gain": 28039,
  "gal": 5802,
  "gall": 27937,
  "gam": 47090,
  "game": 10521,
  "games": 32518,
  "gamma": 22143,
  "gan": 870,
  "gang": 33837,
  "gano": 36261,
  "gans": 7020,
  "gap": 31956,
  "gar": 3088,
  "gard": 22456,
  "garde": 40858,
  "gart": 42862,
  "gary": 39740,
  "gas": 21149,
  "gat": 31151,
  "gate": 14717,
  "gated": 24317,
  "gates": 40195,
  "gateway": 40037,
  "gather": 34417,
  "gathere": 38691,
  "gau": 46655,
  "gaussian": 45776,
  "gb": 15967,
  "gc": 41593,
  "ge": 361,
  "gean": 39397,
  "gear": 45947,
  "gebra": 9879,
  "ged": 2984,
  "gee": 27920,
  "gel": 18801,
  "gemon": 27816,
  "gen": 1639,
  "gence": 11480,
  "gences": 46032,
  "gencies": 32674,
  "gency": 11451,
  "gender": 13184,
  "gene": 22891,
  "gener": 7911,
  "general": 18905,
  "generally": 41271,
  "generate": 17379,
  "generated": 20706,
  "generating": 40334,
  "generation": 12334,
  "generational": 21069,
  "generative": 18571,
  "generator": 21608,
  "generic": 35258,
  "genes": 41220,
  "genesis": 46407,
  "genic": 28675,
  "genome": 40936,
  "gent": 6768,
  "gently": 32367,
  "geo": 19495,
  "geoId": 27580,
  "geom": 44556,
  "geometry": 30281,
  "geon": 22335,
  "geons": 34444,
  "ger": 2008,
  "gerald": 33958,
  "gered": 12266,
  "geries": 20738,
  "gering": 23349,
  "gers": 7658,
  "ges": 2519,
  "gest": 6832,
  "get": 726,
  "getLogger": 23845,
  "getattr": 35446,
  "getcwd": 41282,
  "getenv": 38723,
  "getitem": 38672,
  "gets": 10486,
  "getter": 26021,
  "getting": 37515,
  "gevity": 16561,
  "gex": 17726,
  "gg": 1057,
  "gged": 11723,
  "gger": 34189,
  "ggest": 1778,
  "gging": 19569,
  "ggish": 37272,
  "ggle": 23931,
  "ggling": 33087,
  "ggy": 30569,
  "gh": 460,
  "gha": 47948,
  "ghai": 25929,
  "ghan": 11109,
  "ghum": 38039,
  "gi": 5526,
  "gia": 21560,
  "gid": 47666,
  "gie": 37144,
  "giene": 31250,
  "gif": 44687,
  "gil": 37820,
  "gin": 4821,
  "ging": 2707,
  "gins": 34724,
  "girl": 48187,
  "git": 16422,
  "github": 15585,
  "give": 35470,
  "given": 28728,
  "giving": 13619,
  "gl": 4399,
  "glacial": 44965,
  "glades": 37227,
  "glass": 29863,
  "gling": 39394,
  "glob": 22029,
  "global": 13906,
  "glom": 40538,
  "glut": 39840,
  "gly": 15288,
  "gm": 34948,
  "gment": 4899,
  "gments": 16430,
  "gn": 3662,
  "go": 2345,
  "goal": 31395,
  "god": 32692,
  "going": 4304,
  "gold": 23859,
  "gom": 21858,
  "gomery": 22455,
  "gon": 13539,
  "gone": 19454,
  "good": 12018,
  "google": 19314,
  "got": 34482,
  "gotten": 37685,
  "gov": 7894,
  "govern": 12402,
  "government": 22592,
  "governmental": 20591,
  "gp": 29244,
  "gpu": 26228,
  "gr": 9861,
  "gra": 4570,
  "grab": 48862,
  "grace": 36510,
  "grad": 7561,
  "grade": 9787,
  "grades": 44322,
  "gradient": 33277,
  "grads": 44666,
  "gradu": 29132,
  "graduate": 10519,
  "graduates": 33741,
  "grain": 32700,
  "grained": 39368,
  "gram": 3852,
  "grams": 33115,
  "gran": 27679,
  "grand": 25183,
  "grant": 36058,
  "graph": 8396,
  "graphs": 38297,
  "grass": 18780,
  "grav": 23811,
  "grave": 38881,
  "gravity": 35638,
  "gray": 22948,
  "gre": 24192,
  "great": 18680,
  "greater": 41773,
  "green": 9298,
  "greens": 39280,
  "gren": 38602,
  "gres": 36301,
  "grey": 39572,
  "grid": 9674,
  "grids": 46740,
  "grim": 13098,
  "ground": 2616,
  "grounds": 46038,
  "group": 5606,
  "groupby": 38332,
  "groups": 12863,
  "grow": 32863,
  "growing": 19089,
  "grown": 21776,
  "growth": 19477,
  "gs": 4387,
  "gt": 13626,
  "gu": 6058,
  "guard": 25036,
  "gue": 34652,
  "guess": 43435,
  "gui": 32116,
  "guid": 35074,
  "guide": 30956,
  "guided": 27064,
  "guild": 28331,
  "gument": 15840,
  "gun": 23544,
  "gut": 42354,
  "gy": 3983,
  "gypt": 4615,
  "gyz": 43128,
  "gz": 23517,
  "h": 88,
  "ha": 3250,
  "hab": 4176,
  "hack": 48765,
  "had": 12730,
  "hael": 33557,
  "haft": 48726,
  "hah": 39573,
  "hai": 41057,
  "hair": 44479,
  "hak": 36995,
  "hake": 40740,
  "hal": 10127,
  "half": 16713,
  "hall": 29371,
  "ham": 4256,
  "han": 10936,
  "hana": 37901,
  "hand": 4564,
  "handed": 24525,
  "handle": 16493,
  "handler": 15331,
  "handlers": 34865,
  "hands": 41648,
  "hang": 31603,
  "hao": 32605,
  "happy": 45478,
  "haps": 3063,
  "har": 11130,
  "hara": 37304,
  "harata": 47573,
  "hard": 11516,
  "hardt": 35443,
  "hardware": 48066,
  "hari": 47845,
  "harm": 24065,
  "hart": 25330,
  "harv": 27944,
  "harvest": 44814,
  "has": 8116,
  "hasa": 48856,
  "hash": 14307,
  "hat": 962,
  "hatma": 38715,
  "hattan": 21261,
  "haul": 36036,
  "haus": 25133,
  "hausen": 46508,
  "haust": 8408,
  "hav": 6921,
  "have": 13671,
  "haven": 45240,
  "having": 32120,
  "havior": 9303,
  "haw": 30784,
  "hay": 46927,
  "hazard": 47307,
  "hb": 27716,
  "hc": 46766,
  "hd": 36439,
  "hdf": 39283,
  "he": 255,
  "hea": 10239,
  "head": 2699,
  "headed": 17713,
  "header": 12476,
  "headers": 16020,
  "heading": 34613,
  "heads": 16858,
  "healing": 43200,
  "health": 7689,
  "healthy": 11491,
  "heart": 12867,
  "hearted": 20461,
  "heartedly": 35109,
  "heast": 7449,
  "heastern": 13008,
  "heat": 17716,
  "heated": 40504,
  "heating": 43401,
  "heavy": 36160,
  "hed": 770,
  "hedral": 13158,
  "hedrals": 45419,
  "hedron": 39513,
  "hee": 29086,
  "heed": 34463,
  "heet": 27628,
  "heets": 40601,
  "heid": 21279,
  "height": 11551,
  "heim": 18453,
  "heimer": 8670,
  "heit": 19052,
  "hel": 2797,
  "held": 13813,
  "helf": 36843,
  "heli": 34228,
  "helial": 17949,
  "helium": 38082,
  "hell": 14785,
  "hello": 28120,
  "hells": 38180,
  "helm": 25376,
  "help": 11449,
  "helper": 24453,
  "helpers": 35976,
  "helpful": 44222,
  "helps": 46228,
  "hem": 1676,
  "hema": 8712,
  "hemat": 3436,
  "hematic": 11182,
  "hematical": 45652,
  "hematics": 33931,
  "hement": 49124,
  "hemer": 27659,
  "hemes": 46501,
  "hemical": 6727,
  "hemistry": 9800,
  "hen": 795,
  "hence": 41196,
  "hend": 9927,
  "hene": 35610,
  "henes": 49019,
  "heng": 28400,
  "henge": 38714,
  "henia": 48034,
  "hens": 3139,
  "hent": 5349,
  "heny": 47225,
  "heon": 38060,
  "her": 349,
  "hera": 42456,
  "here": 1531,
  "hered": 19783,
  "herence": 11570,
  "herent": 5742,
  "heres": 12950,
  "heric": 8410,
  "herical": 20299,
  "hering": 19383,
  "herly": 45591,
  "hern": 2300,
  "hero": 12026,
  "hers": 1260,
  "herson": 44871,
  "herst": 46441,
  "herty": 42979,
  "hertz": 44436,
  "hes": 852,
  "heses": 29290,
  "hesi": 48201,
  "hesia": 16053,
  "hesis": 6982,
  "hess": 16240,
  "hest": 4134,
  "hester": 13968,
  "het": 2571,
  "hetamine": 37571,
  "hetic": 4612,
  "hetical": 17783,
  "hetically": 25912,
  "hetics": 12675,
  "hetti": 37459,
  "hetto": 28816,
  "heum": 15190,
  "heumat": 17395,
  "heumatic": 45474,
  "hev": 47508,
  "hew": 32939,
  "hews": 40151,
  "hex": 18367,
  "hey": 31334,
  "hh": 36625,
  "hi": 6004,
  "hib": 2569,
  "hibition": 21142,
  "hicle": 18965,
  "hicles": 29670,
  "hid": 35374,
  "hidden": 15734,
  "hide": 35883,
  "hier": 45512,
  "hift": 27680,
  "hig": 24735,
  "high": 9975,
  "higher": 37600,
  "highest": 44389,
  "hill": 17925,
  "him": 25481,
  "hin": 43014,
  "hind": 16030,
  "hing": 2535,
  "hint": 47010,
  "hip": 974,
  "hips": 4452,
  "hire": 9550,
  "his": 15377,
  "hisatt": 46628,
  "hist": 5306,
  "histogram": 45544,
  "historic": 17372,
  "historical": 35590,
  "history": 13011,
  "hit": 30431,
  "hl": 21735,
  "hm": 28150,
  "hma": 7445,
  "hn": 16758,
  "ho": 16147,
  "hoe": 23108,
  "hoea": 31290,
  "hof": 32761,
  "hofer": 47755,
  "hoff": 42505,
  "hog": 32534,
  "hogs": 47824,
  "hol": 13699,
  "hold": 2326,
  "holder": 12216,
  "holders": 6975,
  "holding": 27035,
  "hole": 19808,
  "holes": 28932,
  "holm": 25248,
  "hom": 28477,
  "home": 10694,
  "hon": 22581,
  "honored": 48672,
  "hood": 2694,
  "hook": 26052,
  "hoot": 47026,
  "hop": 6994,
  "hops": 10096,
  "hor": 1444,
  "hora": 40616,
  "hore": 44227,
  "horizontal": 31048,
  "horn": 34428,
  "hors": 3404,
  "horse": 32798,
  "hose": 37686,
  "hospital": 45816,
  "host": 6111,
  "hostname": 32225,
  "hosts": 36341,
  "hot": 12762,
  "hots": 44787,
  "hou": 18727,
  "houn": 42087,
  "hound": 46399,
  "hour": 12137,
  "hours": 26102,
  "house": 4404,
  "houses": 15359,
  "housing": 45622,
  "hov": 26392,
  "hovah": 29272,
  "how": 6778,
  "however": 47382,
  "hp": 32711,
  "hr": 12743,
  "hra": 33692,
  "href": 36574,
  "hru": 36532,
  "hs": 20238,
  "ht": 4082,
  "htaking": 19185,
  "htm": 15850,
  "html": 5699,
  "http": 5031,
  "https": 4687,
  "hu": 15995,
  "hua": 41760,
  "hub": 35126,
  "hum": 16839,
  "human": 10621,
  "hun": 39781,
  "hundred": 39075,
  "hurst": 39225,
  "hurt": 48347,
  "hus": 6667,
  "hw": 39267,
  "hy": 1724,
  "hya": 30608,
  "hyd": 8487,
  "hydration": 36740,
  "hydro": 43947,
  "hydrogen": 46994,
  "hyp": 30196,
  "hyper": 26248,
  "hyth": 18175,
  "hythm": 25159,
  "hythmia": 43645,
  "hythmias": 38749,
  "hz": 42165,
  "i": 89,
  "ia": 542,
  "iability": 9012,
  "iable": 4427,
  "iably": 21387,
  "iac": 12569,
  "iacin": 37768,
  "iad": 38681,
  "iae": 20853,
  "iage": 16257,
  "iagn": 38508,
  "iagnosed": 39406,
  "iago": 31667,
  "iah": 8310,
  "ial": 409,
  "ially": 1375,
  "ialog": 23218,
  "ials": 3028,
  "iam": 22432,
  "ian": 697,
  "iana": 8903,
  "iance": 4536,
  "iances": 10270,
  "iander": 42455,
  "iane": 34361,
  "iang": 25345,
  "iani": 47031,
  "ianic": 38875,
  "iano": 11206,
  "ians": 1506,
  "iant": 5439,
  "iao": 28467,
  "iar": 8190,
  "iarism": 17130,
  "iary": 11343,
  "ias": 4272,
  "iasis": 15551,
  "iasm": 13336,
  "iat": 6598,
  "iate": 6149,
  "iated": 7421,
  "iates": 27269,
  "iatic": 33152,
  "iating": 13625,
  "iation": 2809,
  "iations": 10386,
  "iative": 12344,
  "iatives": 34429,
  "iator": 37290,
  "iators": 37734,
  "iatric": 31201,
  "iav": 41313,
  "iaz": 28990,
  "ib": 505,
  "iba": 30434,
  "ibald": 42340,
  "iban": 27015,
  "ibar": 47811,
  "ibe": 34909,
  "iber": 8550,
  "iberal": 32572,
  "iberian": 31852,
  "ibi": 47101,
  "ibia": 25599,
  "ibid": 46753,
  "ibilities": 4832,
  "ibility": 1968,
  "ibl": 6898,
  "ible": 812,
  "ibles": 17502,
  "ibli": 11909,
  "iblical": 9361,
  "ibling": 19254,
  "iblings": 14746,
  "ibly": 3923,
  "ibo": 41764,
  "ibou": 40952,
  "ibr": 2054,
  "ibrary": 3294,
  "ibration": 12056,
  "ibrill": 48147,
  "ibular": 23945,
  "ibus": 33711,
  "ic": 286,
  "ica": 4127,
  "icable": 25094,
  "icago": 7484,
  "ical": 433,
  "ically": 947,
  "icals": 25700,
  "ican": 6036,
  "icans": 21131,
  "icate": 6109,
  "icated": 4769,
  "icates": 25661,
  "icating": 19999,
  "ication": 1629,
  "ications": 10707,
  "icator": 26020,
  "icators": 33424,
  "icc": 24966,
  "ice": 569,
  "iced": 4673,
  "icense": 4701,
  "icent": 45206,
  "ices": 943,
  "ich": 485,
  "iche": 18966,
  "icher": 43531,
  "ichever": 30108,
  "ichi": 24597,
  "ichia": 38561,
  "icht": 36738,
  "ichte": 42441,
  "ici": 20040,
  "icia": 33441,
  "icial": 4800,
  "icially": 47509,
  "ician": 5792,
  "icians": 5074,
  "iciaries": 27918,
  "iciary": 21752,
  "icidal": 20283,
  "icide": 7173,
  "icides": 13220,
  "iciency": 11865,
  "icient": 18599,
  "icile": 41714,
  "icillin": 28225,
  "icin": 48782,
  "icine": 19363,
  "icing": 5980,
  "icion": 18964,
  "icions": 41923,
  "icious": 5564,
  "icip": 4223,
  "icism": 13421,
  "icist": 35098,
  "icists": 37132,
  "icit": 5490,
  "icity": 29671,
  "ick": 901,
  "icked": 12549,
  "icken": 41166,
  "icker": 37536,
  "ickers": 36958,
  "icking": 6629,
  "ickness": 30712,
  "icks": 5381,
  "icksburg": 42608,
  "icky": 41434,
  "icle": 1705,
  "icles": 2681,
  "ico": 4099,
  "icode": 15817,
  "icon": 4656,
  "icos": 48096,
  "icro": 1936,
  "icrob": 16213,
  "icrobial": 18150,
  "ics": 747,
  "ict": 778,
  "icted": 32659,
  "iction": 2032,
  "ictionary": 5591,
  "ictions": 39257,
  "ictor": 7061,
  "icture": 24387,
  "icul": 10192,
  "icular": 8929,
  "icularly": 18352,
  "iculate": 44975,
  "icule": 42400,
  "icult": 1827,
  "icultural": 13589,
  "iculture": 23228,
  "icum": 31359,
  "icuous": 27256,
  "icus": 18319,
  "icut": 15256,
  "icy": 8744,
  "icycle": 47075,
  "icz": 33787,
  "id": 311,
  "ida": 5187,
  "idable": 21994,
  "idad": 23541,
  "idade": 47050,
  "idae": 12963,
  "idal": 10268,
  "idan": 38589,
  "idas": 41162,
  "idase": 47722,
  "idate": 12363,
  "idated": 16856,
  "idates": 26394,
  "idating": 17778,
  "idation": 8756,
  "iday": 6312,
  "idays": 12874,
  "idd": 1760,
  "idden": 4181,
  "idding": 24471,
  "iddish": 34951,
  "iddle": 2575,
  "iddles": 29143,
  "ide": 489,
  "idea": 39414,
  "ideal": 45748,
  "ided": 2735,
  "idel": 14092,
  "idelberg": 40979,
  "idelity": 21675,
  "iden": 20235,
  "idence": 1667,
  "idences": 34265,
  "idency": 18181,
  "ident": 880,
  "idental": 37812,
  "identally": 35486,
  "idential": 22138,
  "identified": 26382,
  "identifier": 27281,
  "identity": 26275,
  "idents": 3676,
  "ideo": 8496,
  "ideos": 28904,
  "idepress": 20171,
  "ider": 1310,
  "idered": 2463,
  "idering": 20553,
  "iders": 9881,
  "idery": 27999,
  "ides": 1677,
  "idespread": 6940,
  "idge": 3177,
  "idi": 21482,
  "idia": 45052,
  "idian": 22812,
  "idians": 40200,
  "idic": 44654,
  "idim": 31874,
  "idimensional": 36353,
  "idine": 27345,
  "iding": 4088,
  "idious": 39270,
  "idis": 17889,
  "idisciplinary": 23197,
  "idity": 7358,
  "idium": 35099,
  "ido": 20191,
  "idon": 41524,
  "idopsis": 39451,
  "ids": 1319,
  "idson": 31528,
  "iduous": 25067,
  "idx": 6848,
  "idxs": 36771,
  "idy": 22982,
  "ie": 519,
  "iece": 21244,
  "ied": 885,
  "ief": 3234,
  "ieft": 45021,
  "ieg": 38376,
  "iegel": 46681,
  "iel": 956,
  "ield": 1197,
  "ields": 2673,
  "ien": 6522,
  "ience": 3364,
  "ienced": 29063,
  "iences": 7929,
  "iencies": 13460,
  "iencing": 45227,
  "iency": 3160,
  "ienne": 40227,
  "iens": 20839,
  "ient": 1010,
  "ients": 1526,
  "ier": 1153,
  "iere": 33676,
  "ieri": 36586,
  "ierra": 16276,
  "ierre": 36999,
  "iers": 3653,
  "ies": 370,
  "iesel": 23374,
  "iest": 4477,
  "iet": 2610,
  "ieth": 48548,
  "ieties": 30639,
  "iets": 27912,
  "iety": 38739,
  "ietz": 32553,
  "ietzsche": 34788,
  "ieu": 21049,
  "iev": 31441,
  "ieval": 7919,
  "ieve": 19504,
  "ieves": 31065,
  "ieving": 34979,
  "iew": 928,
  "if": 342,
  "ifa": 35851,
  "ifact": 43445,
  "ifacts": 42600,
  "ifax": 36171,
  "ife": 830,
  "ifer": 11335,
  "ifera": 33430,
  "iferous": 26594,
  "ifers": 22666,
  "ifest": 22334,
  "iff": 627,
  "iffe": 32038,
  "iffel": 46682,
  "ifflin": 43284,
  "iffs": 13509,
  "ifi": 34290,
  "ifiable": 15739,
  "ific": 652,
  "ifically": 3376,
  "ificance": 19451,
  "ificant": 15910,
  "ificantly": 42761,
  "ificate": 21537,
  "ification": 2059,
  "ifications": 5705,
  "ifice": 9877,
  "ificial": 5216,
  "ified": 1498,
  "ifier": 6433,
  "ifiers": 11765,
  "ifies": 5638,
  "ifix": 28591,
  "ifixion": 32276,
  "iflor": 46804,
  "iflower": 31867,
  "ifolia": 35585,
  "iform": 5867,
  "iformes": 46970,
  "iforn": 3660,
  "ifornia": 3744,
  "ifs": 38327,
  "ift": 2706,
  "ifted": 22276,
  "ifting": 14800,
  "ifts": 22401,
  "ifug": 26592,
  "iful": 3440,
  "ify": 1282,
  "ifying": 4318,
  "ig": 324,
  "iga": 28011,
  "igail": 36503,
  "igan": 8515,
  "igate": 28720,
  "igated": 40641,
  "igating": 13263,
  "igation": 10749,
  "igator": 27575,
  "igators": 37008,
  "ige": 14921,
  "igen": 3218,
  "igenous": 3899,
  "iger": 9957,
  "igers": 23690,
  "iges": 44747,
  "igg": 22813,
  "igh": 405,
  "igham": 37219,
  "ighed": 17245,
  "ight": 445,
  "ighted": 23332,
  "ightedness": 45122,
  "ighter": 6827,
  "ighters": 14052,
  "ighth": 11935,
  "ighthouse": 24638,
  "ighting": 16059,
  "ightly": 4441,
  "ights": 1762,
  "igi": 39019,
  "igible": 40967,
  "igion": 13677,
  "igions": 37669,
  "igious": 9512,
  "igl": 43030,
  "igm": 10071,
  "igma": 8010,
  "igmat": 25028,
  "igmatic": 30385,
  "igmoid": 25559,
  "igms": 25213,
  "igmund": 46688,
  "ign": 545,
  "ignant": 15934,
  "igned": 8539,
  "igning": 43843,
  "ignment": 12766,
  "ignon": 43985,
  "ignore": 25244,
  "ignt": 13311,
  "ignty": 13503,
  "igo": 15751,
  "igrams": 27200,
  "igraph": 17473,
  "igraphic": 41243,
  "igraphy": 23647,
  "igration": 10457,
  "igree": 45985,
  "igs": 13205,
  "igsaw": 42873,
  "igue": 8672,
  "iguous": 21788,
  "igure": 5012,
  "ih": 7402,
  "ihad": 32913,
  "ihu": 34649,
  "ii": 4877,
  "iii": 17074,
  "ij": 5271,
  "ija": 42492,
  "iji": 22087,
  "ijing": 17736,
  "ijk": 47112,
  "ijn": 49096,
  "ijuana": 16987,
  "ik": 1873,
  "ika": 10927,
  "ikan": 45576,
  "ike": 2780,
  "iked": 42052,
  "iken": 46851,
  "iker": 33672,
  "ikers": 40062,
  "ikes": 14922,
  "ikh": 14050,
  "ikhail": 44492,
  "iki": 7762,
  "ikip": 7601,
  "ikipedia": 7786,
  "iko": 24776,
  "ikon": 46461,
  "iku": 30614,
  "il": 301,
  "ila": 9194,
  "ilage": 18165,
  "iland": 37613,
  "ilant": 34458,
  "ilantro": 43277,
  "ilar": 1716,
  "ilarly": 4705,
  "ilate": 27939,
  "ilated": 21545,
  "ilateral": 13293,
  "ilation": 7566,
  "ild": 558,
  "ilda": 35316,
  "ilde": 45111,
  "ilded": 41637,
  "ile": 552,
  "iled": 5323,
  "ilem": 13489,
  "ilepsy": 48315,
  "iler": 10163,
  "ilers": 33972,
  "iles": 3481,
  "iless": 45230,
  "ilet": 48117,
  "iley": 13216,
  "ili": 1979,
  "ilia": 22121,
  "ilial": 19992,
  "ilian": 24587,
  "iliar": 4026,
  "iliary": 19828,
  "iliated": 45847,
  "iliation": 10972,
  "ilib": 12265,
  "ilibrium": 12989,
  "ilic": 37502,
  "ilical": 35860,
  "ilience": 5718,
  "iliency": 27600,
  "ilient": 13727,
  "ilies": 2928,
  "ilight": 33221,
  "iline": 30083,
  "ilinear": 41788,
  "iling": 4966,
  "ilingual": 14596,
  "ilio": 44348,
  "ilion": 31189,
  "ilipp": 9418,
  "ilis": 19169,
  "ilism": 42325,
  "ilit": 3989,
  "ilitary": 24634,
  "ilitating": 21275,
  "ilitation": 10867,
  "ilities": 1751,
  "ility": 783,
  "ilization": 20768,
  "ilk": 18432,
  "ill": 388,
  "illa": 7712,
  "illance": 10194,
  "illaries": 36766,
  "illary": 17404,
  "illas": 20118,
  "illation": 20075,
  "ille": 3285,
  "illed": 2182,
  "iller": 15573,
  "illery": 15440,
  "illes": 15343,
  "illet": 30537,
  "illi": 3173,
  "illin": 21958,
  "illing": 3422,
  "illion": 10489,
  "illo": 19880,
  "illon": 32357,
  "ills": 1411,
  "illus": 22197,
  "illusion": 37790,
  "illy": 11735,
  "ilo": 34437,
  "iloc": 27527,
  "ilog": 40209,
  "ilon": 20459,
  "ilos": 3188,
  "ilot": 34148,
  "ils": 2169,
  "ilst": 10797,
  "ilt": 2137,
  "ilton": 13134,
  "iltration": 38411,
  "ilty": 13185,
  "ilus": 36628,
  "ily": 878,
  "im": 306,
  "ima": 9508,
  "imag": 18788,
  "image": 5028,
  "images": 11975,
  "imaging": 34606,
  "imal": 5018,
  "imals": 11632,
  "iman": 26663,
  "imar": 35794,
  "imate": 1524,
  "imated": 14140,
  "imately": 2515,
  "imates": 21597,
  "imating": 30687,
  "imation": 14278,
  "imb": 14523,
  "imbabwe": 22113,
  "ime": 556,
  "imedia": 12445,
  "imen": 37503,
  "iment": 2572,
  "imental": 14780,
  "imentary": 22282,
  "iments": 9087,
  "imer": 6576,
  "imes": 1014,
  "imet": 24739,
  "imeter": 13152,
  "imeters": 16837,
  "imetres": 35357,
  "imetry": 45589,
  "img": 6266,
  "imgs": 38579,
  "imgur": 16419,
  "imi": 35782,
  "imia": 39039,
  "imilar": 32669,
  "iminary": 31617,
  "imir": 25918,
  "imity": 13533,
  "imize": 30925,
  "imm": 9086,
  "immer": 20311,
  "imming": 23659,
  "immun": 44876,
  "immune": 15012,
  "imo": 24520,
  "imon": 31719,
  "imony": 38264,
  "imore": 16474,
  "imoto": 41945,
  "imp": 10250,
  "impact": 27129,
  "impl": 27662,
  "import": 2017,
  "important": 24743,
  "imposed": 35706,
  "impro": 24922,
  "improvement": 40491,
  "imps": 29076,
  "imread": 40089,
  "ims": 14291,
  "imshow": 26803,
  "imum": 10800,
  "imus": 35872,
  "imuth": 44690,
  "in": 254,
  "ina": 1787,
  "inable": 32812,
  "inae": 32866,
  "inai": 24835,
  "inal": 1104,
  "inalg": 25615,
  "inality": 40101,
  "inally": 2957,
  "inals": 11123,
  "inance": 11079,
  "inant": 5436,
  "inar": 15841,
  "inarily": 26070,
  "inars": 21812,
  "inary": 2233,
  "inas": 20911,
  "inatal": 43650,
  "inate": 3463,
  "inated": 3409,
  "inately": 37993,
  "inates": 7580,
  "inating": 2934,
  "ination": 1302,
  "inational": 22034,
  "inations": 5203,
  "inative": 39111,
  "inator": 9821,
  "inators": 18243,
  "inatory": 21264,
  "inav": 19720,
  "inburgh": 20731,
  "inc": 1950,
  "incare": 42029,
  "incarnation": 38651,
  "ince": 1198,
  "inces": 13466,
  "inch": 12008,
  "inched": 47295,
  "inches": 31128,
  "incial": 14842,
  "incinn": 26930,
  "incinnati": 27552,
  "include": 21745,
  "includes": 44045,
  "including": 8617,
  "inclusive": 48241,
  "incoln": 9139,
  "income": 11795,
  "incre": 19445,
  "increasing": 34316,
  "inct": 3126,
  "inction": 7025,
  "inctions": 18297,
  "ind": 526,
  "inda": 26114,
  "indeer": 36788,
  "indent": 32166,
  "independent": 32023,
  "inder": 7125,
  "inders": 33539,
  "index": 3888,
  "indexes": 38757,
  "indices": 15189,
  "inding": 5566,
  "individual": 29174,
  "indle": 32521,
  "inds": 29192,
  "indu": 6758,
  "induced": 14179,
  "industrial": 27869,
  "industry": 45841,
  "ine": 462,
  "inea": 13196,
  "ined": 1210,
  "inee": 33243,
  "inees": 30975,
  "inel": 25092,
  "inely": 11738,
  "inen": 37864,
  "inence": 16022,
  "inent": 5211,
  "inently": 24236,
  "inephrine": 45055,
  "iner": 10829,
  "iners": 29310,
  "inery": 10716,
  "ines": 884,
  "inese": 3859,
  "iness": 1352,
  "inet": 6224,
  "ineteen": 32297,
  "ineteenth": 10880,
  "inetics": 31748,
  "inety": 26302,
  "inez": 39464,
  "inf": 2691,
  "infect": 44401,
  "infected": 25867,
  "infection": 33761,
  "infer": 47261,
  "inflamm": 12173,
  "inflammatory": 13302,
  "inflation": 48242,
  "influ": 44874,
  "info": 4092,
  "inform": 46512,
  "informatics": 31569,
  "information": 14243,
  "informed": 23036,
  "infos": 44738,
  "infrared": 42826,
  "ing": 274,
  "ingale": 46313,
  "inge": 15690,
  "ingen": 45670,
  "inger": 4941,
  "ingham": 17112,
  "inging": 14481,
  "ingle": 12649,
  "ingles": 24434,
  "ingling": 26877,
  "ingly": 5055,
  "ingo": 30642,
  "ings": 616,
  "ington": 12006,
  "ingu": 3845,
  "inguishable": 40574,
  "inhab": 36124,
  "ini": 6538,
  "inia": 27388,
  "inian": 12289,
  "inians": 23053,
  "inic": 34402,
  "inical": 18257,
  "inine": 25191,
  "ining": 1294,
  "inis": 17182,
  "inished": 31432,
  "inism": 30821,
  "inist": 22091,
  "init": 2563,
  "inite": 11497,
  "initely": 7461,
  "initial": 11673,
  "initialize": 25603,
  "initializer": 31444,
  "inities": 35191,
  "inition": 9089,
  "initions": 23191,
  "initis": 29584,
  "inity": 6472,
  "inium": 37977,
  "inj": 29040,
  "inja": 34537,
  "ink": 900,
  "inka": 49092,
  "inkel": 45968,
  "inker": 37333,
  "inki": 38817,
  "inking": 2011,
  "inkle": 31047,
  "inkling": 43640,
  "inks": 3220,
  "inn": 4900,
  "innamon": 20402,
  "inner": 19917,
  "inning": 29397,
  "innings": 25328,
  "innitus": 23969,
  "ino": 3335,
  "inoa": 27964,
  "inoid": 30960,
  "inoids": 25512,
  "inois": 10699,
  "inol": 31669,
  "inology": 12696,
  "inos": 17240,
  "inosa": 45999,
  "inous": 28368,
  "inox": 31762,
  "inoza": 46466,
  "inp": 30492,
  "inplace": 46033,
  "input": 4525,
  "inputs": 14843,
  "inqu": 20756,
  "ins": 927,
  "inse": 19632,
  "inseng": 43347,
  "insert": 14095,
  "insic": 13343,
  "insically": 37089,
  "inside": 40265,
  "inski": 36303,
  "insky": 28346,
  "inson": 8267,
  "insp": 22846,
  "inspired": 29221,
  "inst": 3462,
  "install": 21928,
  "installed": 46891,
  "instance": 5734,
  "instances": 32429,
  "instead": 42112,
  "instein": 13817,
  "inston": 29601,
  "instru": 37073,
  "instruction": 45931,
  "insula": 12612,
  "insular": 48539,
  "insured": 46727,
  "int": 591,
  "intage": 19174,
  "integ": 12057,
  "integer": 29102,
  "integration": 26653,
  "intellig": 36418,
  "intend": 18903,
  "intendent": 27255,
  "intendo": 39265,
  "intensity": 24267,
  "intensive": 24801,
  "inter": 2284,
  "interaction": 34131,
  "intercept": 47914,
  "interest": 14237,
  "interested": 37474,
  "interesting": 47588,
  "interface": 23167,
  "interfaces": 44901,
  "intering": 41809,
  "intern": 24981,
  "internal": 25308,
  "international": 39238,
  "internet": 48386,
  "interp": 40582,
  "interpol": 37713,
  "interpre": 28849,
  "interpret": 34223,
  "interpretation": 37950,
  "interpreted": 42299,
  "interrupted": 36710,
  "inters": 27681,
  "intersection": 46464,
  "interval": 21551,
  "intestinal": 14495,
  "inth": 12749,
  "into": 17059,
  "inton": 14347,
  "intosh": 42982,
  "intrinsic": 48119,
  "introdu": 26609,
  "introduction": 36643,
  "ints": 22696,
  "intuitive": 39492,
  "inu": 47799,
  "inus": 16183,
  "inv": 9359,
  "invalid": 23633,
  "invasive": 23489,
  "invent": 32836,
  "inventory": 46714,
  "inverse": 45588,
  "invest": 30128,
  "invol": 37369,
  "inx": 24768,
  "iny": 3604,
  "io": 1119,
  "iod": 1371,
  "iodiversity": 21829,
  "iography": 29610,
  "ioid": 39577,
  "iol": 2286,
  "iola": 43467,
  "iolence": 15499,
  "ioles": 48853,
  "iolet": 13659,
  "iological": 8488,
  "iology": 6674,
  "ion": 285,
  "ionError": 45835,
  "iona": 41522,
  "ionage": 33710,
  "ional": 1107,
  "ione": 18697,
  "ioned": 15616,
  "ionic": 33148,
  "ionine": 48029,
  "ions": 438,
  "iop": 11217,
  "ior": 1405,
  "iors": 11580,
  "ios": 3686,
  "iosis": 30996,
  "iosity": 6368,
  "iosync": 44684,
  "iot": 3545,
  "iota": 25420,
  "iothe": 19552,
  "iotherapy": 24198,
  "iotic": 12005,
  "iotics": 13610,
  "iots": 22038,
  "iou": 41129,
  "iour": 21624,
  "ious": 711,
  "iously": 10604,
  "iox": 8491,
  "ioxid": 9074,
  "ioxide": 44307,
  "ip": 508,
  "ipa": 44437,
  "ipal": 7128,
  "ipation": 11744,
  "ipe": 6337,
  "ipeg": 42647,
  "ipel": 24009,
  "ipelago": 27094,
  "iper": 23894,
  "ipers": 41608,
  "ipes": 23678,
  "iph": 12259,
  "iphany": 47463,
  "ipher": 8461,
  "ipheral": 40764,
  "iphon": 42215,
  "iphy": 43758,
  "ipient": 39256,
  "iping": 46009,
  "ipitation": 40315,
  "ipl": 38603,
  "iple": 2005,
  "ipment": 3493,
  "ipolar": 31468,
  "ipot": 29878,
  "ipotent": 37611,
  "ipp": 2317,
  "ipped": 5227,
  "ipper": 24185,
  "ippers": 27298,
  "ipping": 6487,
  "ippings": 38220,
  "ipple": 21531,
  "ipples": 30044,
  "ips": 2259,
  "ipt": 48846,
  "ipur": 41719,
  "ipus": 37076,
  "ipv": 44193,
  "ipy": 15780,
  "ipzig": 38217,
  "iq": 30943,
  "iqu": 1045,
  "ique": 1496,
  "iqued": 30843,
  "iques": 2246,
  "iquette": 24391,
  "iquid": 22124,
  "iquity": 16880,
  "ir": 337,
  "ira": 3792,
  "irable": 10050,
  "irac": 45217,
  "iracy": 16402,
  "iral": 10524,
  "iration": 5402,
  "irators": 40466,
  "iratory": 7343,
  "ircon": 42459,
  "ird": 2307,
  "irds": 7629,
  "ire": 609,
  "irect": 1196,
  "irection": 3838,
  "irectional": 30979,
  "ired": 1246,
  "irement": 31812,
  "irements": 20582,
  "ires": 1946,
  "iret": 32192,
  "iretroviral": 36499,
  "iri": 16850,
  "iriam": 44374,
  "irical": 10988,
  "irie": 16174,
  "iries": 35167,
  "irin": 34253,
  "iring": 3166,
  "iris": 29809,
  "irit": 2784,
  "irium": 48599,
  "irk": 15309,
  "irl": 19802,
  "irling": 23993,
  "irls": 33542,
  "irm": 2551,
  "irmingham": 21780,
  "irms": 8798,
  "iro": 12337,
  "iron": 1009,
  "irs": 10533,
  "irsch": 36570,
  "irst": 729,
  "irt": 6746,
  "irth": 9093,
  "irts": 16952,
  "irtual": 20206,
  "irty": 7491,
  "irubin": 44631,
  "irus": 7382,
  "iruses": 23820,
  "irvana": 43925,
  "iry": 38230,
  "is": 271,
  "isa": 14765,
  "isan": 15562,
  "isance": 29445,
  "isans": 22115,
  "isation": 5014,
  "isational": 40238,
  "isations": 11562,
  "isbury": 42435,
  "isc": 2639,
  "iscal": 13234,
  "isch": 26071,
  "ische": 27988,
  "ischen": 41834,
  "ischer": 27091,
  "isco": 16462,
  "iscopal": 30497,
  "iscovered": 31977,
  "iscrim": 37690,
  "iscus": 30214,
  "isdir": 36240,
  "ise": 769,
  "ised": 1718,
  "isely": 9182,
  "isement": 39023,
  "isen": 20218,
  "iser": 14793,
  "isers": 18359,
  "ises": 2190,
  "isexual": 22077,
  "isfile": 29847,
  "ish": 621,
  "isha": 24755,
  "ishable": 26793,
  "ished": 1211,
  "isher": 5384,
  "ishers": 11670,
  "ishes": 6306,
  "ishi": 29740,
  "ishing": 4753,
  "ishment": 7206,
  "ishments": 38581,
  "ishop": 9498,
  "ishops": 20449,
  "isi": 28628,
  "isia": 27785,
  "isible": 11882,
  "isin": 33778,
  "ising": 2039,
  "isins": 38213,
  "isinstance": 45049,
  "ision": 1415,
  "isional": 28634,
  "isions": 2730,
  "isite": 15089,
  "isites": 30255,
  "isition": 9633,
  "isitions": 35538,
  "isive": 17157,
  "isk": 7174,
  "isks": 46944,
  "isl": 16815,
  "islation": 34986,
  "isle": 28989,
  "ism": 918,
  "isma": 45536,
  "ismatic": 27731,
  "ismic": 45272,
  "ismo": 42849,
  "isms": 3151,
  "isnan": 48830,
  "iso": 24169,
  "isode": 25324,
  "isodes": 45481,
  "isol": 15660,
  "ison": 2164,
  "isons": 10428,
  "isor": 40031,
  "isors": 40520,
  "isot": 38888,
  "isp": 8028,
  "ispens": 17782,
  "isphere": 14051,
  "isput": 39199,
  "iss": 774,
  "issa": 21936,
  "issance": 9254,
  "isse": 26570,
  "ission": 1608,
  "issions": 2939,
  "issipp": 11119,
  "issippi": 11430,
  "isson": 30165,
  "issors": 21712,
  "issue": 2195,
  "issues": 7084,
  "ist": 363,
  "ista": 17261,
  "istan": 5704,
  "istance": 2495,
  "istant": 9531,
  "istas": 38889,
  "iste": 40423,
  "isted": 18207,
  "istem": 45159,
  "istence": 19193,
  "istency": 34791,
  "istent": 11607,
  "ister": 2712,
  "istered": 24611,
  "isteria": 40725,
  "isters": 7273,
  "istic": 1847,
  "istical": 7528,
  "istically": 11771,
  "isticated": 9468,
  "istice": 40482,
  "istics": 2659,
  "istine": 23660,
  "isting": 19651,
  "istle": 15547,
  "istles": 28818,
  "istocene": 35368,
  "iston": 36427,
  "istor": 36442,
  "istors": 35497,
  "istos": 46128,
  "istration": 22136,
  "istries": 29897,
  "istry": 3471,
  "ists": 911,
  "isure": 16919,
  "isy": 17293,
  "it": 269,
  "ita": 7416,
  "itability": 30647,
  "itable": 3257,
  "itably": 17256,
  "itage": 4842,
  "ital": 1201,
  "itality": 24773,
  "itals": 7812,
  "itamin": 8479,
  "itan": 7514,
  "itance": 27717,
  "itania": 47711,
  "itans": 25505,
  "itant": 25963,
  "itar": 11601,
  "itarian": 8514,
  "itarianism": 25570,
  "itars": 43061,
  "itary": 2657,
  "itas": 23735,
  "itasking": 45297,
  "itat": 17786,
  "itate": 9775,
  "itated": 16574,
  "itates": 45694,
  "itating": 22375,
  "itation": 2511,
  "itations": 14661,
  "itative": 6795,
  "itatively": 34345,
  "itch": 3224,
  "itched": 15378,
  "itches": 9988,
  "itching": 19732,
  "ite": 663,
  "itect": 3338,
  "itecture": 37316,
  "ited": 960,
  "itely": 45908,
  "item": 6692,
  "items": 8416,
  "iter": 3638,
  "iteracy": 46647,
  "iterate": 28902,
  "iteration": 27026,
  "iterations": 35219,
  "iterator": 44527,
  "iteritems": 44946,
  "iterr": 10435,
  "iterranean": 10548,
  "iters": 37520,
  "ites": 2171,
  "itext": 43744,
  "ith": 343,
  "ithe": 27952,
  "ither": 1878,
  "ithmetic": 17516,
  "iths": 32458,
  "ithub": 13573,
  "iti": 17203,
  "itial": 41981,
  "itian": 26851,
  "itic": 11188,
  "itical": 7738,
  "itics": 13923,
  "iticus": 37741,
  "ities": 642,
  "itime": 14071,
  "itin": 33459,
  "iting": 1802,
  "ition": 570,
  "itions": 1173,
  "itious": 24033,
  "itis": 3968,
  "itism": 22173,
  "itius": 44800,
  "itive": 1328,
  "itively": 32497,
  "itiveness": 26317,
  "itives": 16329,
  "itivity": 6571,
  "itization": 36566,
  "itize": 30458,
  "itizing": 43669,
  "itle": 2791,
  "itled": 42457,
  "itles": 27853,
  "itness": 5197,
  "ito": 16844,
  "itol": 17802,
  "iton": 38588,
  "itone": 31465,
  "itoneal": 45493,
  "itor": 2608,
  "itories": 25010,
  "itoring": 13249,
  "itors": 5585,
  "itory": 7558,
  "itous": 18891,
  "its": 842,
  "itsu": 46051,
  "itt": 7832,
  "itted": 27750,
  "itter": 7160,
  "itting": 9584,
  "ittle": 6965,
  "itu": 14383,
  "itual": 7912,
  "itud": 2331,
  "itude": 3074,
  "itudes": 6108,
  "itudinal": 17436,
  "iture": 8293,
  "itures": 21918,
  "itus": 11530,
  "itut": 32220,
  "itute": 2881,
  "ituted": 18592,
  "itutes": 11523,
  "ituting": 30053,
  "itution": 2687,
  "itutional": 23397,
  "itutions": 4131,
  "ity": 383,
  "itz": 7711,
  "itzer": 11445,
  "itzerland": 14459,
  "itÃ©": 33816,
  "iu": 48390,
  "ium": 1460,
  "iums": 47767,
  "ius": 3609,
  "iv": 380,
  "iva": 9331,
  "ivable": 25796,
  "ival": 2264,
  "ivalence": 42405,
  "ivalent": 6787,
  "ivalry": 36382,
  "ivals": 11030,
  "ivan": 21417,
  "ivar": 38062,
  "ivari": 24924,
  "ivariate": 27407,
  "ivary": 34959,
  "ivate": 9307,
  "ivated": 17618,
  "ivating": 24815,
  "ivation": 9165,
  "ivative": 44916,
  "ive": 404,
  "ived": 1382,
  "ivel": 42759,
  "ively": 1320,
  "iven": 1298,
  "iveness": 4391,
  "iver": 1567,
  "ivered": 8451,
  "ivering": 38985,
  "ivers": 1034,
  "iversary": 13116,
  "iverse": 4892,
  "iversity": 1295,
  "ives": 898,
  "ivia": 15548,
  "ivial": 18750,
  "ivid": 1033,
  "ivided": 24326,
  "ividual": 1179,
  "ivil": 2360,
  "iving": 1177,
  "ivir": 48393,
  "ivirus": 47097,
  "ivism": 14741,
  "ivist": 22809,
  "ivistic": 46004,
  "ivists": 32441,
  "ivities": 9755,
  "ivitis": 23836,
  "ivity": 1868,
  "ivo": 18263,
  "ivol": 46806,
  "ivore": 33431,
  "ivores": 20757,
  "ivorous": 25156,
  "ivot": 35982,
  "iw": 17493,
  "iwi": 34528,
  "ix": 1088,
  "ixed": 13609,
  "ixel": 32206,
  "ixon": 19409,
  "ixt": 4746,
  "ixties": 46411,
  "ixture": 6425,
  "ixtures": 15446,
  "ixty": 17796,
  "iy": 12771,
  "iya": 32290,
  "iyah": 48178,
  "iz": 463,
  "iza": 21194,
  "izabeth": 9013,
  "izable": 14480,
  "izal": 39078,
  "izard": 19341,
  "izards": 23973,
  "izarre": 25075,
  "ization": 1237,
  "izational": 11107,
  "izations": 2918,
  "ize": 836,
  "ized": 1005,
  "izen": 33081,
  "izens": 33034,
  "izer": 4129,
  "izers": 7927,
  "izes": 3215,
  "izing": 1829,
  "izo": 47810,
  "izon": 37521,
  "izontal": 24652,
  "izoph": 15217,
  "izophren": 15293,
  "izophrenia": 16164,
  "izz": 9424,
  "izza": 16017,
  "izzard": 47683,
  "izzes": 20241,
  "izziness": 21611,
  "izzy": 33744,
  "iÄĩ": 39672,
  "j": 90,
  "ja": 10824,
  "jac": 32896,
  "jack": 35177,
  "jah": 23801,
  "jam": 47506,
  "jamin": 14526,
  "jan": 13977,
  "jang": 41144,
  "jango": 7097,
  "jar": 19621,
  "jas": 44941,
  "jav": 44450,
  "java": 36792,
  "je": 16864,
  "ject": 680,
  "jected": 25932,
  "jection": 22122,
  "jectory": 44870,
  "jee": 37821,
  "jet": 25371,
  "ji": 10381,
  "jiang": 35963,
  "jib": 32034,
  "jid": 47903,
  "jin": 43371,
  "jing": 46475,
  "jit": 39338,
  "jj": 38464,
  "jk": 44688,
  "jo": 12780,
  "job": 12980,
  "jobs": 25014,
  "joice": 41632,
  "join": 4849,
  "joined": 47559,
  "joint": 19108,
  "jord": 47597,
  "jour": 24583,
  "journal": 20778,
  "journals": 42559,
  "joy": 2641,
  "jp": 34580,
  "jpeg": 42336,
  "jpg": 13655,
  "js": 19098,
  "json": 5518,
  "ju": 17334,
  "juana": 44092,
  "jud": 9414,
  "judgment": 42724,
  "judice": 43769,
  "jug": 26972,
  "jump": 46590,
  "jun": 27484,
  "juna": 47943,
  "junct": 43233,
  "just": 3189,
  "justice": 41910,
  "juven": 30560,
  "k": 91,
  "ka": 6335,
  "kah": 27738,
  "kal": 13072,
  "kan": 24184,
  "kar": 25616,
  "kary": 39110,
  "kas": 47308,
  "kb": 37310,
  "ke": 396,
  "ked": 27511,
  "kee": 22137,
  "keep": 13799,
  "keeper": 21306,
  "keepers": 22354,
  "keeping": 14895,
  "kef": 31742,
  "kefeller": 33581,
  "kegee": 48720,
  "kel": 28875,
  "keley": 14543,
  "ken": 3021,
  "kens": 11603,
  "ker": 10023,
  "keras": 22548,
  "kerel": 41012,
  "kernel": 18837,
  "kers": 20024,
  "kes": 5908,
  "ket": 10116,
  "kets": 25351,
  "key": 2393,
  "keyframe": 39980,
  "keys": 6519,
  "keyword": 35088,
  "keywords": 40002,
  "kg": 11372,
  "kh": 13918,
  "kha": 46126,
  "ki": 8139,
  "kick": 48391,
  "kid": 44678,
  "kids": 41230,
  "kil": 31385,
  "kill": 19475,
  "killers": 36887,
  "killing": 48348,
  "kin": 7109,
  "kind": 8907,
  "kines": 34599,
  "kinesis": 41418,
  "kinesisfirehose": 45691,
  "king": 644,
  "kins": 7412,
  "kinson": 30016,
  "kit": 14838,
  "kits": 48437,
  "kk": 31022,
  "kl": 7959,
  "klah": 15772,
  "klahoma": 15975,
  "klore": 16588,
  "km": 14251,
  "kn": 18605,
  "kner": 44820,
  "knit": 39518,
  "know": 2617,
  "knowledge": 28215,
  "known": 3864,
  "ko": 12713,
  "kok": 43072,
  "kon": 43776,
  "kor": 39646,
  "kov": 30318,
  "kp": 47374,
  "kr": 29549,
  "ks": 538,
  "kt": 22817,
  "ktop": 30959,
  "ku": 27409,
  "kv": 42124,
  "kw": 21842,
  "kward": 21843,
  "kwargs": 6453,
  "ky": 3740,
  "kyo": 17405,
  "l": 92,
  "la": 5825,
  "lab": 1901,
  "label": 5072,
  "labeled": 38111,
  "labels": 9237,
  "lad": 18268,
  "laden": 42216,
  "lades": 14664,
  "lag": 21415,
  "lain": 36354,
  "lake": 45943,
  "lam": 4130,
  "lambda": 10640,
  "lamydia": 37598,
  "lan": 15034,
  "lance": 25063,
  "land": 1219,
  "lander": 39731,
  "landers": 31765,
  "lando": 36234,
  "lands": 3308,
  "lane": 37403,
  "lang": 22599,
  "language": 14120,
  "lantic": 23850,
  "lap": 25503,
  "lar": 25004,
  "larg": 22503,
  "large": 22444,
  "largest": 30489,
  "las": 18289,
  "lash": 29457,
  "lass": 14225,
  "lasses": 23266,
  "lassical": 48150,
  "last": 5113,
  "lasting": 17632,
  "lastname": 14431,
  "lat": 9362,
  "late": 12837,
  "lated": 23207,
  "latent": 41454,
  "later": 26369,
  "latest": 25887,
  "lation": 3563,
  "latitude": 37962,
  "launch": 39069,
  "laus": 36436,
  "lav": 14658,
  "lavery": 19006,
  "law": 11490,
  "lawful": 31750,
  "laws": 34387,
  "lay": 4437,
  "layer": 9179,
  "layers": 12076,
  "layout": 15027,
  "lazy": 38046,
  "lb": 26019,
  "lbl": 37743,
  "lc": 46928,
  "ld": 400,
  "le": 290,
  "lead": 24043,
  "leader": 40124,
  "leading": 15957,
  "leaf": 18857,
  "league": 43236,
  "lean": 5964,
  "leanor": 32493,
  "leans": 16454,
  "learn": 11418,
  "learning": 13193,
  "lease": 3162,
  "least": 39488,
  "leave": 46401,
  "leaved": 46749,
  "leaves": 47309,
  "lect": 691,
  "lected": 6475,
  "lectic": 39065,
  "lecting": 24052,
  "lection": 1976,
  "lections": 36837,
  "lectric": 22036,
  "led": 1007,
  "ledge": 1707,
  "ledged": 38781,
  "lee": 22659,
  "leen": 20760,
  "leep": 2281,
  "leet": 43727,
  "left": 8842,
  "leg": 4793,
  "legal": 27321,
  "lege": 4946,
  "legend": 22501,
  "leges": 32748,
  "legged": 30110,
  "legraph": 30140,
  "lehem": 32615,
  "leigh": 43464,
  "lein": 36502,
  "lem": 12164,
  "lemagne": 45937,
  "lement": 1862,
  "lements": 6438,
  "len": 4152,
  "lename": 44548,
  "lene": 23306,
  "leneck": 38824,
  "leness": 29009,
  "length": 6666,
  "lengths": 36148,
  "lens": 34252,
  "ler": 2347,
  "lers": 6130,
  "les": 735,
  "lesn": 42139,
  "less": 1325,
  "lessed": 28396,
  "lessly": 8322,
  "lessness": 15892,
  "lest": 38074,
  "let": 2016,
  "letal": 14181,
  "letcher": 37344,
  "lete": 5435,
  "leted": 29226,
  "letes": 26269,
  "letic": 38151,
  "letion": 19204,
  "leton": 12205,
  "letons": 26434,
  "lets": 6770,
  "lett": 24263,
  "lette": 33306,
  "letter": 13435,
  "letters": 27041,
  "leuk": 43326,
  "lev": 22376,
  "levant": 15638,
  "levard": 46057,
  "level": 4638,
  "leveland": 19001,
  "levels": 28348,
  "lew": 45207,
  "lex": 2480,
  "lexia": 21970,
  "ley": 2292,
  "leys": 15950,
  "lez": 42315,
  "lf": 46610,
  "li": 1418,
  "lia": 23254,
  "liable": 26667,
  "liament": 7072,
  "liance": 19130,
  "lib": 5474,
  "library": 23345,
  "lic": 709,
  "lication": 11978,
  "lications": 30455,
  "license": 30711,
  "licenses": 21571,
  "lich": 31984,
  "lick": 5779,
  "licking": 45627,
  "lickr": 28438,
  "lict": 11768,
  "licted": 18656,
  "licting": 38564,
  "licts": 28463,
  "lid": 48188,
  "lie": 17011,
  "lied": 13963,
  "lier": 25741,
  "liers": 12629,
  "lies": 14235,
  "liest": 33200,
  "lif": 33311,
  "life": 3460,
  "lift": 40172,
  "lifting": 46343,
  "lig": 5320,
  "light": 2501,
  "lighten": 13800,
  "lightenment": 14592,
  "lighting": 35683,
  "lightly": 43782,
  "lights": 7681,
  "lik": 7692,
  "like": 2579,
  "liked": 41240,
  "likelihood": 37556,
  "likely": 9058,
  "likes": 38449,
  "lim": 3219,
  "lime": 28511,
  "limit": 16665,
  "limited": 15827,
  "limits": 34898,
  "lin": 4226,
  "linalg": 26525,
  "line": 1311,
  "linear": 13032,
  "linearity": 47165,
  "lined": 19402,
  "liner": 41784,
  "lines": 5110,
  "liness": 18394,
  "ling": 1519,
  "linger": 45165,
  "lings": 13501,
  "lington": 23676,
  "lingu": 46597,
  "lining": 26512,
  "link": 8371,
  "linked": 23001,
  "links": 19687,
  "lins": 22257,
  "linspace": 26916,
  "linux": 40397,
  "lio": 37612,
  "lion": 39126,
  "lip": 31597,
  "lipped": 45435,
  "liquid": 40950,
  "lis": 34125,
  "lish": 1340,
  "lished": 1605,
  "lisher": 27512,
  "lishes": 20580,
  "lishing": 10399,
  "list": 2402,
  "listdir": 29922,
  "listed": 33314,
  "listen": 47521,
  "listener": 47731,
  "lists": 22372,
  "lit": 17094,
  "lite": 33838,
  "liter": 18539,
  "literally": 42890,
  "literals": 41139,
  "little": 31774,
  "live": 25857,
  "lived": 21166,
  "liver": 16655,
  "living": 23209,
  "ll": 764,
  "lla": 20309,
  "ller": 33211,
  "lli": 31664,
  "llib": 23687,
  "llis": 48604,
  "llium": 44113,
  "llo": 31394,
  "lm": 31431,
  "ln": 34115,
  "lo": 5365,
  "load": 2386,
  "loaded": 27946,
  "loader": 17639,
  "loading": 28300,
  "loads": 12936,
  "loan": 36528,
  "lob": 12608,
  "loc": 3981,
  "local": 9651,
  "locale": 48517,
  "localhost": 31496,
  "located": 35051,
  "location": 10786,
  "locations": 26678,
  "lock": 8343,
  "locked": 31258,
  "locking": 20095,
  "log": 3107,
  "logged": 44012,
  "logger": 11261,
  "logging": 16229,
  "logical": 37244,
  "login": 15873,
  "logits": 28789,
  "logs": 25871,
  "lon": 13488,
  "long": 5480,
  "loo": 31351,
  "look": 14757,
  "looking": 19731,
  "lookup": 29321,
  "loom": 31529,
  "loop": 15528,
  "loor": 35980,
  "lor": 4553,
  "lord": 41569,
  "los": 28584,
  "loss": 6915,
  "losses": 33326,
  "lost": 33290,
  "lot": 29766,
  "lov": 34331,
  "love": 28367,
  "loving": 37991,
  "low": 683,
  "lower": 8266,
  "lp": 35083,
  "lr": 18154,
  "ls": 2971,
  "lst": 24907,
  "lt": 2392,
  "lu": 1374,
  "luence": 25633,
  "luent": 22407,
  "lug": 16407,
  "lugin": 29294,
  "lum": 45070,
  "lung": 47865,
  "lut": 49083,
  "lux": 11791,
  "lv": 29883,
  "ly": 318,
  "lycer": 23257,
  "lying": 2150,
  "lymp": 9894,
  "lyn": 18133,
  "lys": 30817,
  "lyss": 34646,
  "lysses": 39586,
  "lywood": 16786,
  "lÃ©": 38075,
  "m": 93,
  "mL": 37232,
  "ma": 2432,
  "mable": 31740,
  "mac": 17299,
  "mach": 44043,
  "machine": 24939,
  "mad": 23157,
  "made": 9211,
  "mag": 21058,
  "magic": 41882,
  "magn": 34126,
  "magnetic": 46906,
  "magnitude": 47863,
  "mail": 8925,
  "mails": 47391,
  "main": 6157,
  "mainly": 40448,
  "maintenance": 46489,
  "major": 23089,
  "make": 12104,
  "makedirs": 28740,
  "maker": 16201,
  "makers": 11545,
  "making": 5438,
  "mal": 8975,
  "mala": 23835,
  "male": 31609,
  "man": 1483,
  "manac": 46729,
  "manage": 40899,
  "managed": 36492,
  "management": 20384,
  "manager": 15259,
  "mand": 25759,
  "manent": 39917,
  "manifest": 39744,
  "mann": 9727,
  "mans": 13429,
  "manship": 16582,
  "mant": 20226,
  "manual": 35048,
  "manuel": 28052,
  "manufact": 41448,
  "many": 18431,
  "map": 5123,
  "mapper": 45643,
  "mapping": 22166,
  "maps": 26201,
  "mar": 3298,
  "mare": 30997,
  "mares": 32389,
  "marg": 26982,
  "margin": 33457,
  "marine": 35807,
  "mark": 4260,
  "markdown": 42447,
  "marked": 31509,
  "marker": 31043,
  "market": 15052,
  "markets": 28594,
  "marking": 36671,
  "marks": 11838,
  "marriage": 48084,
  "married": 29814,
  "mars": 43015,
  "mart": 39339,
  "mary": 4865,
  "mas": 5831,
  "mask": 8836,
  "masked": 40795,
  "masks": 36880,
  "mass": 15707,
  "massive": 41242,
  "master": 12801,
  "masters": 43865,
  "mat": 3352,
  "match": 12468,
  "matched": 31373,
  "matches": 33402,
  "matching": 44728,
  "mate": 23183,
  "material": 25946,
  "materials": 44082,
  "mates": 10982,
  "math": 8898,
  "mathbf": 33918,
  "matic": 14979,
  "matmul": 38534,
  "matplotlib": 33613,
  "matrix": 9842,
  "matter": 38604,
  "max": 3831,
  "maximum": 30898,
  "may": 11941,
  "maybe": 27066,
  "mb": 2237,
  "mber": 2604,
  "mberg": 37554,
  "mble": 15689,
  "mbling": 39880,
  "mc": 21445,
  "md": 13738,
  "me": 1558,
  "meal": 21859,
  "mean": 6830,
  "meaning": 22292,
  "means": 24243,
  "measure": 23453,
  "measured": 43821,
  "measurement": 44841,
  "measures": 31710,
  "meat": 39508,
  "med": 3328,
  "medi": 7560,
  "media": 18140,
  "median": 33102,
  "mediate": 29151,
  "mediated": 25886,
  "mediately": 27440,
  "medical": 31119,
  "medicine": 27624,
  "medium": 35799,
  "meg": 31449,
  "mel": 15811,
  "melon": 31892,
  "melt": 48189,
  "mem": 9808,
  "member": 17932,
  "members": 23196,
  "memory": 18210,
  "men": 4065,
  "mene": 41040,
  "menopausal": 37065,
  "mens": 46060,
  "ment": 358,
  "mental": 10240,
  "mentation": 8585,
  "mented": 7565,
  "mentia": 10072,
  "mentioned": 19502,
  "ments": 658,
  "menu": 19831,
  "mer": 763,
  "merc": 42488,
  "merce": 14910,
  "mercial": 15160,
  "mere": 42596,
  "merge": 20453,
  "merged": 19633,
  "meric": 995,
  "mers": 11266,
  "merse": 25560,
  "mes": 7609,
  "mese": 34298,
  "mesh": 18999,
  "mess": 18658,
  "message": 6807,
  "messages": 21441,
  "met": 3135,
  "meta": 12591,
  "metadata": 13493,
  "metal": 30276,
  "meter": 23016,
  "meth": 31668,
  "method": 5765,
  "methods": 21303,
  "methyl": 43935,
  "metic": 15732,
  "metics": 26726,
  "metric": 11700,
  "metrical": 22180,
  "metrics": 17826,
  "metries": 44578,
  "metry": 12755,
  "mf": 41093,
  "mg": 16442,
  "mgr": 48766,
  "mi": 14772,
  "mia": 13332,
  "miah": 25643,
  "mic": 6257,
  "micro": 20390,
  "micron": 45973,
  "mid": 13687,
  "middle": 22876,
  "middleware": 47175,
  "midt": 27199,
  "mig": 22757,
  "might": 23514,
  "mighty": 30156,
  "migration": 39395,
  "migrations": 33707,
  "mil": 40365,
  "mile": 19537,
  "military": 39295,
  "milk": 37029,
  "mill": 14315,
  "millan": 34656,
  "million": 25415,
  "mills": 36764,
  "min": 1659,
  "mind": 12060,
  "minded": 15214,
  "mindedness": 39556,
  "mine": 37943,
  "ming": 2803,
  "mington": 47360,
  "mini": 40760,
  "minimum": 34577,
  "mining": 47091,
  "minist": 2924,
  "minor": 34705,
  "mins": 39473,
  "minster": 25221,
  "minus": 46248,
  "minute": 15598,
  "minutes": 37221,
  "mir": 18096,
  "mis": 34210,
  "misc": 45859,
  "miss": 8637,
  "missible": 44700,
  "missing": 24868,
  "mission": 3211,
  "missions": 17209,
  "mist": 29841,
  "mit": 1713,
  "mite": 35660,
  "mith": 24072,
  "mits": 27857,
  "mitt": 17657,
  "mitted": 4046,
  "mitting": 45677,
  "mium": 25049,
[...]
